{"version": "1.0", "truncation": null, "padding": null, "added_tokens": [{"id": 0, "content": "<pad>", "single_word": false, "lstrip": false, "rstrip": false, "normalized": false, "special": true}, {"id": 1, "content": "<unk>", "single_word": false, "lstrip": false, "rstrip": false, "normalized": false, "special": true}, {"id": 2, "content": "<bos>", "single_word": false, "lstrip": false, "rstrip": false, "normalized": false, "special": true}, {"id": 3, "content": "<eos>", "single_word": false, "lstrip": false, "rstrip": false, "normalized": false, "special": true}, {"id": 4, "content": "<newline>", "single_word": false, "lstrip": false, "rstrip": false, "normalized": false, "special": true}, {"id": 5, "content": "<tab>", "single_word": false, "lstrip": false, "rstrip": false, "normalized": false, "special": true}], "normalizer": null, "pre_tokenizer": {"type": "ByteLevel", "add_prefix_space": false, "trim_offsets": true, "use_regex": true}, "post_processor": null, "decoder": {"type": "ByteLevel", "add_prefix_space": true, "trim_offsets": true, "use_regex": true}, "model": {"type": "BPE", "dropout": null, "unk_token": "<unk>", "continuing_subword_prefix": null, "end_of_word_suffix": null, "fuse_unk": false, "byte_fallback": false, "ignore_merges": false, "vocab": {"<pad>": 0, "<unk>": 1, "<bos>": 2, "<eos>": 3, "<newline>": 4, "<tab>": 5, "!": 6, "\"": 7, "#": 8, "$": 9, "%": 10, "&": 11, "'": 12, "(": 13, ")": 14, "*": 15, "+": 16, ",": 17, "-": 18, ".": 19, "/": 20, "0": 21, "1": 22, "2": 23, "3": 24, "4": 25, "5": 26, "6": 27, "7": 28, "8": 29, "9": 30, ":": 31, ";": 32, "<": 33, "=": 34, ">": 35, "?": 36, "@": 37, "A": 38, "B": 39, "C": 40, "D": 41, "E": 42, "F": 43, "G": 44, "H": 45, "I": 46, "J": 47, "K": 48, "L": 49, "M": 50, "N": 51, "O": 52, "P": 53, "Q": 54, "R": 55, "S": 56, "T": 57, "U": 58, "V": 59, "W": 60, "X": 61, "Y": 62, "Z": 63, "[": 64, "\\": 65, "]": 66, "^": 67, "_": 68, "`": 69, "a": 70, "b": 71, "c": 72, "d": 73, "e": 74, "f": 75, "g": 76, "h": 77, "i": 78, "j": 79, "k": 80, "l": 81, "m": 82, "n": 83, "o": 84, "p": 85, "q": 86, "r": 87, "s": 88, "t": 89, "u": 90, "v": 91, "w": 92, "x": 93, "y": 94, "z": 95, "|": 96, "}": 97, "~": 98, "¡": 99, "¢": 100, "£": 101, "¤": 102, "¥": 103, "¦": 104, "§": 105, "¨": 106, "©": 107, "ª": 108, "«": 109, "¬": 110, "®": 111, "¯": 112, "°": 113, "±": 114, "²": 115, "³": 116, "´": 117, "µ": 118, "¶": 119, "·": 120, "¸": 121, "¹": 122, "º": 123, "»": 124, "¼": 125, "½": 126, "¾": 127, "¿": 128, "Â": 129, "Ã": 130, "Ä": 131, "Å": 132, "Æ": 133, "Ç": 134, "È": 135, "É": 136, "Ê": 137, "Ë": 138, "Ì": 139, "Í": 140, "Î": 141, "Ï": 142, "Ð": 143, "Ñ": 144, "Ò": 145, "Ó": 146, "Ô": 147, "Õ": 148, "Ö": 149, "×": 150, "Ø": 151, "Ù": 152, "Ú": 153, "Û": 154, "Ü": 155, "Ý": 156, "Þ": 157, "ß": 158, "à": 159, "á": 160, "â": 161, "ã": 162, "ä": 163, "å": 164, "æ": 165, "ç": 166, "è": 167, "é": 168, "ê": 169, "ë": 170, "ì": 171, "í": 172, "ï": 173, "ð": 174, "Ġ": 175, "Ģ": 176, "ģ": 177, "Ĥ": 178, "ĥ": 179, "Ħ": 180, "ħ": 181, "Ĩ": 182, "ĩ": 183, "Ī": 184, "ī": 185, "Ĭ": 186, "ĭ": 187, "Į": 188, "į": 189, "İ": 190, "ı": 191, "Ĳ": 192, "ĳ": 193, "Ĵ": 194, "ĵ": 195, "Ķ": 196, "ķ": 197, "ĸ": 198, "Ĺ": 199, "ĺ": 200, "Ļ": 201, "ļ": 202, "Ľ": 203, "ľ": 204, "Ŀ": 205, "ŀ": 206, "Ł": 207, "ł": 208, "Ń": 209, "Ġt": 210, "in": 211, "Ġa": 212, "he": 213, "re": 214, "Ġthe": 215, "on": 216, "er": 217, "Ġo": 218, "at": 219, "Ġs": 220, "en": 221, "Ġc": 222, "Ġw": 223, "es": 224, "is": 225, "nd": 226, "it": 227, "or": 228, "Ġp": 229, "al": 230, "ne": 231, "Ġb": 232, "Ġof": 233, "Ġf": 234, "ed": 235, "an": 236, "ing": 237, "Ġin": 238, "ou": 239, "ar": 240, "Ġm": 241, "ine": 242, "Ġand": 243, "Ġto": 244, "ic": 245, "new": 246, "Ġ<": 247, "line": 248, "Ġd": 249, "ion": 250, "newline": 251, "le": 252, "ro": 253, "as": 254, "Ġh": 255, "Ġth": 256, "ent": 257, "ct": 258, "Ġe": 259, "il": 260, "Ġre": 261, "ĠT": 262, "om": 263, "ve": 264, "st": 265, "Ġl": 266, "ly": 267, "Ġbe": 268, "Ġis": 269, "âĢ": 270, "se": 271, "ĠA": 272, "ol": 273, "Ġg": 274, "ation": 275, "im": 276, "id": 277, "ut": 278, "ce": 279, "ĠS": 280, "ot": 281, "ur": 282, "ĠI": 283, "ra": 284, "Ġn": 285, "ch": 286, "ow": 287, "et": 288, "Ġfor": 289, "ig": 290, "ĠC": 291, "Ġu": 292, "Ġthat": 293, "Ġon": 294, "Ġst": 295, "ver": 296, "ĠThe": 297, "Ġy": 298, "ir": 299, "ul": 300, "ay": 301, "am": 302, "Ġas": 303, "ith": 304, "ad": 305, "Ġpro": 306, "her": 307, "el": 308, "os": 309, "Ġare": 310, "Ġcon": 311, "ĠM": 312, "Ġan": 313, "Ġwith": 314, "Ġwh": 315, "if": 316, "Ġyou": 317, "Ġor": 318, "Ġit": 319, "Ġal": 320, "ĠP": 321, "Ġ(": 322, "ter": 323, "od": 324, "Ġ1": 325, "ĠB": 326, "ment": 327, "ge": 328, "th": 329, "ĠW": 330, "op": 331, "ate": 332, "ist": 333, "Ġde": 334, "ers": 335, "ĠH": 336, "ies": 337, "Ġhe": 338, "ill": 339, "ess": 340, "ab": 341, "Ġex": 342, "us": 343, "Ġwe": 344, "ore": 345, "Ġsu": 346, "Ġcom": 347, "âĢĻ": 348, "ity": 349, "est": 350, "Ġha": 351, "res": 352, "ive": 353, "ĠD": 354, "ac": 355, "um": 356, "ld": 357, "rom": 358, "ect": 359, "Ġv": 360, "ke": 361, "Ġby": 362, "ĠF": 363, "ĠE": 364, "ant": 365, "iv": 366, "qu": 367, "ĠR": 368, "em": 369, "Ġat": 370, "ain": 371, "nt": 372, "pp": 373, "igh": 374, "Ġ-": 375, "Ġwas": 376, "ud": 377, "Ġcan": 378, "Ġfrom": 379, "ĠâĢ": 380, "Ġch": 381, "oc": 382, "Ġr": 383, "and": 384, "ort": 385, "ĠN": 386, "Ġ2": 387, "Ġse": 388, "ial": 389, "ĠG": 390, "ĠL": 391, "ure": 392, "Ġnot": 393, "art": 394, "Ġle": 395, "ical": 396, "Ġhave": 397, "ri": 398, "og": 399, "Ġsh": 400, "un": 401, "Ġen": 402, "Ġsp": 403, "Ġthis": 404, "ĠO": 405, "Ġne": 406, "ĠIn": 407, "Ġab": 408, "ight": 409, "pt": 410, "rou": 411, "ich": 412, "red": 413, "00": 414, "Ġwor": 415, "all": 416, "ther": 417, "ould": 418, "gh": 419, "ions": 420, "ost": 421, "ome": 422, "our": 423, "Ġim": 424, "ated": 425, "du": 426, "Ġus": 427, "per": 428, "Ġpl": 429, "out": 430, "ard": 431, "Ġtheir": 432, "ag": 433, "ide": 434, "ff": 435, "act": 436, "ĠJ": 437, "ell": 438, "Ġint": 439, "ĠU": 440, "ĠTh": 441, "ans": 442, "ast": 443, "ear": 444, "pl": 445, "age": 446, "ust": 447, "Ġwhich": 448, "ak": 449, "Ġk": 450, "Ġwhe": 451, "Ġthey": 452, "Ġyour": 453, "ous": 454, "iz": 455, "ec": 456, "Ġall": 457, "Ġad": 458, "ood": 459, "Ġcont": 460, "ib": 461, "ult": 462, "Ġwill": 463, "Ġinc": 464, "end": 465, "cc": 466, "ru": 467, "Ġdis": 468, "Ġmore": 469, "ia": 470, "ip": 471, "ong": 472, "âĢĿ": 473, "Ġcomp": 474, "ap": 475, "ĠâĢľ": 476, "Ġres": 477, "ations": 478, "vel": 479, "Ġhas": 480, "ere": 481, "so": 482, "Ġdo": 483, "orm": 484, "ary": 485, "ater": 486, "ie": 487, "ild": 488, "ence": 489, "Ġother": 490, "able": 491, "are": 492, "Ġman": 493, "Ġcl": 494, "ual": 495, "Ġbut": 496, "ks": 497, "Ġwere": 498, "ry": 499, "ind": 500, "Ġone": 501, "Ġper": 502, "Ġme": 503, "Ġte": 504, "ance": 505, "ents": 506, "ach": 507, "Ġalso": 508, "Ġimp": 509, "'s": 510, "ep": 511, "ose": 512, "reat": 513, "Ġ19": 514, "ction": 515, "ake": 516, "ass": 517, "ress": 518, "ĠSt": 519, "ase": 520, "au": 521, "Ġ\"": 522, "av": 523, "Ġso": 524, "ĠIt": 525, "Ġj": 526, "ition": 527, "Ġout": 528, "ice": 529, "Ġar": 530, "ime": 531, "Ġapp": 532, "Ġpart": 533, "very": 534, "ber": 535, "one": 536, "ace": 537, "Ġabout": 538, "ĠThis": 539, "ord": 540, "ĠK": 541, "Ġev": 542, "Ġstud": 543, "Ġwho": 544, "ens": 545, "ish": 546, "Ġun": 547, "ory": 548, "ok": 549, "ame": 550, ").": 551, "ire": 552, "ount": 553, "ack": 554, "Ġhis": 555, "Ġpe": 556, "Ġinf": 557, "Ġcomm": 558, "Ġthem": 559, "Ġsy": 560, "ub": 561, "ors": 562, "Ġsc": 563, "ign": 564, "ue": 565, "ite": 566, "ces": 567, "ĠCh": 568, "ang": 569, "ike": 570, "ree": 571, "ound": 572, "now": 573, "Ġbec": 574, "olog": 575, "low": 576, "Ġup": 577, "Ġpre": 578, "Ġthan": 579, "Ġmay": 580, "ric": 581, "ile": 582, "Ġqu": 583, "iff": 584, "Ġsome": 585, "ew": 586, "ople": 587, "Ġrec": 588, "ĠV": 589, "Ġyear": 590, "ays": 591, "Ġthere": 592, "ian": 593, "nder": 594, "ail": 595, "ates": 596, "Ġbeen": 597, "ings": 598, "ĠY": 599, "Ġwhen": 600, "Ġ3": 601, "ough": 602, "mer": 603, "Ġag": 604, "Ġits": 605, "Ġgo": 606, "Ġinto": 607, "Ġtime": 608, "ph": 609, "Ġ20": 610, "te": 611, "vers": 612, "Ġtra": 613, "Ġwork": 614, "Ġthese": 615, "rit": 616, "erv": 617, "ons": 618, "Ġover": 619, "ren": 620, "ally": 621, "Ġdiff": 622, "rough": 623, "Ġpeople": 624, "Ġhow": 625, "ll": 626, "lud": 627, "ause": 628, "Ġcons": 629, "Ġtr": 630, "Ġhad": 631, "Ġro": 632, "ts": 633, "Ġuse": 634, "ond": 635, "ms": 636, "ove": 637, "Ġcol": 638, "Ġour": 639, "Ġra": 640, "Ġact": 641, "ific": 642, "Ġbet": 643, "we": 644, "Ġmost": 645, "bos": 646, "Ġunder": 647, "eos": 648, "Ġknow": 649, "irst": 650, "Ġsa": 651, "lect": 652, "ities": 653, "lic": 654, "Ġlike": 655, "Ġwould": 656, "ments": 657, "ys": 658, "Ġdes": 659, "Ġbl": 660, "ning": 661, "alth": 662, "ject": 663, "Ġacc": 664, "ious": 665, "ook": 666, "les": 667, "row": 668, "velop": 669, "stem": 670, "Ġtw": 671, "Ġrel": 672, "Ġnew": 673, "Ġsuch": 674, "Ġneed": 675, "Ġrep": 676, "Ġif": 677, "ĠWh": 678, "ffect": 679, "ational": 680, "Ġchild": 681, "Ġany": 682, "Ġinclud": 683, "ient": 684, "tern": 685, "Ġgen": 686, "cess": 687, "Ġhel": 688, "ob": 689, "ative": 690, "..": 691, "hed": 692, "ple": 693, "Ġwhat": 694, "ĠUn": 695, "ular": 696, "Ġonly": 697, "Ġhelp": 698, "yp": 699, "Ġused": 700, "Ġph": 701, "Ġno": 702, "Ġpr": 703, "ating": 704, "ced": 705, "Ġprov": 706, "ool": 707, "),": 708, "Ġind": 709, "ov": 710, "Ġprodu": 711, "Ġmany": 712, "Ġthrough": 713, "Ġoff": 714, "Ġam": 715, "Ġfirst": 716, "Ġdevelop": 717, "Ġspec": 718, "Ġfe": 719, "fter": 720, "ĠAs": 721, "oin": 722, "oss": 723, "round": 724, "ics": 725, "Ġreg": 726, "ark": 727, "iet": 728, "uc": 729, "ise": 730, "Ġem": 731, "ath": 732, "erm": 733, "Ġexp": 734, "ĠHe": 735, "Ġac": 736, "rib": 737, "uring": 738, "ful": 739, "Ġtwo": 740, "Ġsystem": 741, "oth": 742, "Ġdiffere": 743, "ink": 744, "old": 745, "ied": 746, "Ġob": 747, "iss": 748, "hen": 749, "eth": 750, "ility": 751, "Ġass": 752, "Ġdec": 753, "als": 754, "ible": 755, "Ġatt": 756, "Ġ4": 757, "ĠâĢĵ": 758, "Ġadd": 759, "rop": 760, "Ġsur": 761, "ased": 762, "ten": 763, "ife": 764, "ange": 765, "aw": 766, "Ġshould": 767, "ert": 768, "fore": 769, "ower": 770, "ures": 771, "Ġfl": 772, "Ġwell": 773, "ned": 774, "Ġsupp": 775, "Ġ201": 776, "ng": 777, "ram": 778, "ween": 779, "ble": 780, "arch": 781, "Ġ5": 782, "Ġwater": 783, "ract": 784, "Ġ200": 785, "Ġrem": 786, "Ġyears": 787, "Ġinv": 788, "Ġsub": 789, "sel": 790, "ade": 791, "gan": 792, "Ġsm": 793, "Ġbetween": 794, "ting": 795, "own": 796, "Ġinter": 797, "ution": 798, "Ġcould": 799, "its": 800, "Ġpres": 801, "Ġwhere": 802, "Ġhealth": 803, "hes": 804, "cy": 805, "Ġhigh": 806, "ick": 807, "Ġtrans": 808, "ĠIf": 809, "Ġmake": 810, "ily": 811, "uch": 812, "Ġco": 813, "ĠWe": 814, "Ġget": 815, "Ġher": 816, "ants": 817, "Ġpers": 818, "xt": 819, "Ġbu": 820, "ident": 821, "Ġimport": 822, "ited": 823, "Ġear": 824, "ural": 825, "ience": 826, "Ġrese": 827, "ever": 828, "wn": 829, "ology": 830, "form": 831, "chn": 832, "chool": 833, "ted": 834, "Ġpol": 835, "ivers": 836, "meric": 837, "ĠAl": 838, "Ġform": 839, "Ġdisc": 840, "Ġinst": 841, "Ġnum": 842, "land": 843, "ĠFor": 844, "Ġmod": 845, "ines": 846, "Ġexam": 847, "ĠAn": 848, "ĠHow": 849, "Ġfound": 850, "ists": 851, "Ġbecause": 852, "ĠRe": 853, "Ġlear": 854, "Ġlar": 855, "ron": 856, "Ġdifferent": 857, "Ġafter": 858, "Ġthen": 859, "ata": 860, "Ġmed": 861, "ually": 862, "Ġsim": 863, "gy": 864, "ness": 865, "Ġlong": 866, "Ġinform": 867, "Ġeven": 868, "Ġjust": 869, "Ġworld": 870, "Ġcar": 871, "Ġvery": 872, "Ġexper": 873, "Ġcent": 874, "Ġ18": 875, "Ġeffect": 876, "ism": 877, "Ġdet": 878, "oy": 879, "ĠAmeric": 880, "ft": 881, "Ġhum": 882, "Ġed": 883, "Ġincre": 884, "cept": 885, "Ġway": 886, "ature": 887, "ins": 888, "Ġtyp": 889, "other": 890, "Ġcount": 891, "aking": 892, "Ġsee": 893, "get": 894, "Ġref": 895, "ically": 896, "Ġresp": 897, "ives": 898, "Ġthose": 899, "vent": 900, "ĠPro": 901, "Ġke": 902, "ollow": 903, "ict": 904, "Ġvar": 905, "Ġgener": 906, "ck": 907, "Ġprog": 908, "Ġpub": 909, "Ġcall": 910, "Ġsaid": 911, "ĠCom": 912, "Ġevery": 913, "iew": 914, "Ġchildren": 915, "cer": 916, "Ġext": 917, "Ġpat": 918, "Ġsoc": 919, "ues": 920, "ros": 921, ".âĢĿ": 922, "Ġprocess": 923, "ĠThey": 924, "ps": 925, "arm": 926, "Ġbeing": 927, "ĠThere": 928, "Ġsec": 929, "ef": 930, "Ġloc": 931, "ds": 932, "Ġresult": 933, "Ġeach": 934, "led": 935, "Ġca": 936, "Ġsign": 937, "Ġpartic": 938, "Ġfact": 939, "tle": 940, "ork": 941, "ases": 942, "iron": 943, "Ġset": 944, "Ġgra": 945, "Ġlife": 946, "ruct": 947, "con": 948, "Ġimportant": 949, "Ġrequ": 950, "Ġtechn": 951, "Ġdist": 952, "Ġcommun": 953, "ages": 954, "Ġ6": 955, "ody": 956, "tic": 957, "Ġmuch": 958, "Ġinformation": 959, "Ġcre": 960, "Ġmy": 961, "Ġshe": 962, "Ġfam": 963, "ĠCon": 964, "Ġdef": 965, "ved": 966, "ather": 967, "Ġmon": 968, "Ġdep": 969, "cent": 970, "Ġent": 971, "ized": 972, "vern": 973, "Ġfollow": 974, "Ġright": 975, "Ġduring": 976, "imes": 977, "ward": 978, "io": 979, "Ġstudents": 980, "Ġread": 981, "Ġlevel": 982, "ices": 983, "Ġfood": 984, "Ġsame": 985, "gg": 986, "Ġlead": 987, "ĠAr": 988, "Ġmade": 989, "Ġsk": 990, "Ġdoes": 991, "hip": 992, "ĠBut": 993, "Ġaut": 994, "any": 995, "Ġmin": 996, "Ġown": 997, "Ġstudy": 998, "ize": 999, "Ġfind": 1000, "Ġperson": 1001, "Ġ|": 1002, "Ġgrow": 1003, "Ġins": 1004, "ĠYou": 1005, "Ġproble": 1006, "Ġcur": 1007, "Ġdata": 1008, "Ġstr": 1009, "Ġend": 1010, "Ġav": 1011, "Ġgood": 1012, "Ġback": 1013, "Ġboth": 1014, "und": 1015, "Ġche": 1016, "Ġpop": 1017, "ale": 1018, "ĠSp": 1019, "viron": 1020, "Ġgrou": 1021, "Ġschool": 1022, "Ġexpl": 1023, "Ġbefore": 1024, "Ġsmall": 1025, "ince": 1026, ".,": 1027, "ty": 1028, "Ġusing": 1029, "urn": 1030, "ars": 1031, "iversity": 1032, "Ġshow": 1033, "omen": 1034, "Ġcomple": 1035, "ĠNew": 1036, "Ġhist": 1037, "ĠInd": 1038, "ane": 1039, "stand": 1040, "ality": 1041, "Ġagain": 1042, "ially": 1043, "Ġcor": 1044, "Ġdi": 1045, "ivid": 1046, "Ġprot": 1047, "ĠSc": 1048, "read": 1049, "Ġgl": 1050, "Ġmain": 1051, "Ġtest": 1052, "Ġoften": 1053, "iel": 1054, "Ġtreat": 1055, "nce": 1056, "Ġbo": 1057, "inal": 1058, "der": 1059, "ock": 1060, "Ġval": 1061, "ĠWhat": 1062, "rol": 1063, "Ġposs": 1064, "000": 1065, "Ġsol": 1066, "Ġless": 1067, "Ġwhile": 1068, "ished": 1069, "ergy": 1070, "ix": 1071, "rain": 1072, "imate": 1073, "Ġstate": 1074, "ute": 1075, "Ġhim": 1076, "Ġ10": 1077, "Ġlit": 1078, "oh": 1079, "ax": 1080, "Ġtake": 1081, "Ġday": 1082, "20": 1083, "Ġnow": 1084, "Ġocc": 1085, "19": 1086, "Ġserv": 1087, "Ġris": 1088, "Ġnumber": 1089, "ĠAnd": 1090, "Ġdise": 1091, "Ġmem": 1092, "akes": 1093, "Ġ7": 1094, "vironment": 1095, "ien": 1096, "irect": 1097, "Ġorgan": 1098, "ulation": 1099, "ection": 1100, "ral": 1101, "Ġbr": 1102, "Ġpower": 1103, "Ġvis": 1104, "Ġpo": 1105, "Ġprovid": 1106, "ier": 1107, "dition": 1108, "ury": 1109, "Ġactiv": 1110, "Ġchar": 1111, "ĠWhen": 1112, "Ġfun": 1113, "Ġresearch": 1114, "iety": 1115, "Ġhuman": 1116, "||": 1117, "Ġbody": 1118, "Ġbel": 1119, "ered": 1120, "Ġcell": 1121, "iqu": 1122, "ah": 1123, "iving": 1124, "Ġsupport": 1125, "air": 1126, "com": 1127, "Ġthree": 1128, "ĠThese": 1129, "up": 1130, "oint": 1131, "Ġmust": 1132, "Ġaround": 1133, "ĠIs": 1134, "Ġhand": 1135, "ĠSe": 1136, "Ġdown": 1137, "uss": 1138, "Ġclass": 1139, "Ġest": 1140, "ves": 1141, "ters": 1142, "Ġcommon": 1143, "Ġ8": 1144, "Ġredu": 1145, "ger": 1146, "hers": 1147, "Ġlook": 1148, "ven": 1149, "Ġconf": 1150, "Ġelect": 1151, "ital": 1152, "Ġstart": 1153, "Ġdid": 1154, "the": 1155, "Ġgreat": 1156, "day": 1157, "aj": 1158, "rent": 1159, "Ġcle": 1160, "Ġland": 1161, "cl": 1162, "ave": 1163, "Ġser": 1164, "Ġlarge": 1165, "Ġgovern": 1166, "self": 1167, "ium": 1168, "ving": 1169, "ains": 1170, "ĠTo": 1171, "Ġexample": 1172, "ouse": 1173, "ross": 1174, "Ġcontin": 1175, "Ġreport": 1176, "Ġcare": 1177, "acter": 1178, "Ġincluding": 1179, "Ġthough": 1180, "gen": 1181, "âĢĶ": 1182, "Ġconst": 1183, "ared": 1184, "Ġcour": 1185, "ex": 1186, "itions": 1187, "Ġop": 1188, "ined": 1189, "Ġallow": 1190, "ional": 1191, "ĠAt": 1192, "ull": 1193, "Ġunderstand": 1194, ",âĢĿ": 1195, "ash": 1196, "Ġmet": 1197, "Ġret": 1198, "Ġ9": 1199, "Ġeduc": 1200, "Ġsom": 1201, "ner": 1202, "Ġcalled": 1203, "Ġequ": 1204, "Ġbuild": 1205, "Ġwrit": 1206, "way": 1207, "Ġadv": 1208, "Ġpublic": 1209, "ĠDe": 1210, "...": 1211, "Ġstill": 1212, "iven": 1213, "Ġpract": 1214, "Ġbeh": 1215, "The": 1216, "anc": 1217, "esp": 1218, "outh": 1219, "iver": 1220, "me": 1221, "ĠâĢĺ": 1222, "Ġknown": 1223, "aterial": 1224, "ividual": 1225, "Ġdr": 1226, "Ġquest": 1227, "Ġthink": 1228, "Ġgu": 1229, "Ġide": 1230, "Ġplace": 1231, "ired": 1232, "erest": 1233, "reen": 1234, "osed": 1235, "ĠAd": 1236, "oci": 1237, "Ġappro": 1238, "oms": 1239, "Ġeas": 1240, "Ġfew": 1241, ".\"": 1242, "iod": 1243, "Ġmat": 1244, "ential": 1245, "orn": 1246, "ĠHowever": 1247, "Ġmight": 1248, "ination": 1249, "Ġstand": 1250, "itive": 1251, "ank": 1252, "de": 1253, "lish": 1254, "ids": 1255, "conom": 1256, "ources": 1257, "ization": 1258, "Ġenvironment": 1259, "bers": 1260, "ries": 1261, "ton": 1262, "Ġdem": 1263, "Ġ199": 1264, "ĠEng": 1265, "ense": 1266, "Ġpresent": 1267, "Ġchang": 1268, "ior": 1269, "Ġwithout": 1270, "Ġwant": 1271, "ĠPh": 1272, "ason": 1273, "oun": 1274, "ived": 1275, "ering": 1276, "Ġcaus": 1277, "raph": 1278, "Ġiss": 1279, "ration": 1280, "Ġwithin": 1281, "Ġenergy": 1282, "Ġtem": 1283, "eral": 1284, "Ġindividual": 1285, "Ġsym": 1286, "ĠUniversity": 1287, "Ġpur": 1288, "eng": 1289, "ertain": 1290, "ethod": 1291, "Ġchange": 1292, "Ġphys": 1293, "ĠEx": 1294, "ĠAmerican": 1295, "ording": 1296, "Ġdon": 1297, "Ġident": 1298, "Ġproduct": 1299, "Ġplay": 1300, "10": 1301, "ption": 1302, "Ġdirect": 1303, "Ġdevelopment": 1304, "Ġmaterial": 1305, "ĠSh": 1306, "Ġcap": 1307, "Ġimm": 1308, "ffic": 1309, "ians": 1310, "Ġwomen": 1311, "Ġlaw": 1312, "ĠRes": 1313, "Ġair": 1314, "Ġsit": 1315, "Ġ&": 1316, "less": 1317, "alk": 1318, "Ġimpro": 1319, "Ġarea": 1320, "Ġproject": 1321, "Ġsocial": 1322, "Ġanother": 1323, "Ġpos": 1324, "Ġpass": 1325, "arent": 1326, "illion": 1327, "Ġspe": 1328, "orth": 1329, "Ġben": 1330, "Ġprof": 1331, "man": 1332, "Ġpot": 1333, "angu": 1334, "inc": 1335, "Ġdisease": 1336, "Ġbre": 1337, "Ġve": 1338, "Ġbelie": 1339, "Ġlight": 1340, "iness": 1341, "âĢĵ": 1342, "Ġsl": 1343, "ability": 1344, "Ġhome": 1345, "gin": 1346, "ological": 1347, "ĠOn": 1348, "pect": 1349, "Ġinclude": 1350, "Ġcult": 1351, "Ġdesc": 1352, "Ġinterest": 1353, "ajor": 1354, "ĠLe": 1355, "Ġmus": 1356, "bs": 1357, "ats": 1358, "ified": 1359, "Ġeng": 1360, "Ġmeas": 1361, "Ġrisk": 1362, "ris": 1363, "ug": 1364, "Ġbest": 1365, "ĠBe": 1366, "Ġrest": 1367, "atic": 1368, "'t": 1369, "Ġcontrol": 1370, "ental": 1371, "ĠCl": 1372, "ained": 1373, "ield": 1374, "ify": 1375, "ccess": 1376, "els": 1377, "ently": 1378, "erc": 1379, "Ġnat": 1380, "Ġanim": 1381, "Ġet": 1382, "Ġopp": 1383, "Ġbecome": 1384, "Ġprogram": 1385, "Ġmark": 1386, "Ġmil": 1387, "Ġ[": 1388, "Ġblood": 1389, "tt": 1390, "ĠPl": 1391, "Ġsever": 1392, "Ġbas": 1393, "Ġmethod": 1394, "Ġanal": 1395, "Ġold": 1396, "Ġgovernment": 1397, "ik": 1398, "Ġpain": 1399, "ĠSo": 1400, "rodu": 1401, "ision": 1402, "Ġagainst": 1403, "az": 1404, "ways": 1405, "rist": 1406, "Ġleg": 1407, "Ġlow": 1408, "Ġproper": 1409, "lished": 1410, "Ġhere": 1411, "Ġpar": 1412, "Ġwar": 1413, "Ġearly": 1414, "Ġeconom": 1415, "Ġbetter": 1416, "Ġmove": 1417, "ource": 1418, "ĠQ": 1419, "Ġele": 1420, "arc": 1421, "ĠCol": 1422, "Ġorder": 1423, "ĠâĢĶ": 1424, "hor": 1425, "ills": 1426, "Ġfore": 1427, "Ġsecond": 1428, "Ġtoo": 1429, "Ġlast": 1430, "Ġprovide": 1431, "Ġreal": 1432, "Ġkeep": 1433, "Ġoper": 1434, "Ġgroup": 1435, "Ġfamily": 1436, "Ġmeans": 1437, "Ġdesign": 1438, "ission": 1439, "ĠUnited": 1440, "ider": 1441, "here": 1442, "ĠCan": 1443, "rap": 1444, "Ġter": 1445, "ories": 1446, "ention": 1447, "Ġtre": 1448, "Ġhistory": 1449, "Ġcause": 1450, "ards": 1451, "Ġparticular": 1452, "Ġ15": 1453, "Ġmajor": 1454, "Ġoccur": 1455, "Ġunt": 1456, "Ġavail": 1457, "amp": 1458, "use": 1459, "Ġsay": 1460, "Ġpossible": 1461, "ware": 1462, "Ġant": 1463, "Ġspecies": 1464, "ote": 1465, "Ġcurrent": 1466, "ĠZ": 1467, "Ġdev": 1468, "Ġtop": 1469, "ples": 1470, "Ġfin": 1471, "ients": 1472, "Ġseveral": 1473, "Ġpercent": 1474, "ĠAll": 1475, "ĠComm": 1476, "Ġnear": 1477, "Ġ.": 1478, "Ġaddition": 1479, "ining": 1480, "to": 1481, "ern": 1482, "Ġinvol": 1483, "Ġart": 1484, "Ġindu": 1485, "Ġmean": 1486, "Ġperiod": 1487, "Ġsaf": 1488, "Ġable": 1489, "Ġorig": 1490, "ograph": 1491, "oid": 1492, "Ġperform": 1493, "Ġlearning": 1494, "view": 1495, "irc": 1496, "Ġhig": 1497, "ina": 1498, "ogn": 1499, "lu": 1500, "Ġthings": 1501, "Ġmen": 1502, "ret": 1503, "Ġmar": 1504, "par": 1505, "Ġnon": 1506, "Ġsince": 1507, "idence": 1508, "Ġbenef": 1509, "ĠGod": 1510, "ĠOne": 1511, "Ġhapp": 1512, "ĠEn": 1513, "Ġprom": 1514, "Ġopen": 1515, "Ġbus": 1516, "Ġlangu": 1517, "Ġcal": 1518, "Ġel": 1519, "Ġfeel": 1520, "ets": 1521, "Ġothers": 1522, "Ġareas": 1523, "Ġamong": 1524, "though": 1525, "ĠTe": 1526, "Ġscient": 1527, "Ġlim": 1528, "ator": 1529, "Ġaffect": 1530, "Ġfre": 1531, "Ġname": 1532, "Ġsignific": 1533, "Ġtreatment": 1534, "Ġlearn": 1535, "ames": 1536, "ww": 1537, ",\"": 1538, "sy": 1539, "Ġcost": 1540, "urop": 1541, "ilar": 1542, "Ġbased": 1543, "ĠStates": 1544, "Ġsays": 1545, "Ġfollowing": 1546, "ended": 1547, "Ġhead": 1548, "Ġavailable": 1549, "ole": 1550, "ĠOr": 1551, "Ġplan": 1552, "Ġaccess": 1553, "Ġgr": 1554, "Ġtimes": 1555, "ling": 1556, "Ġcertain": 1557, "Ġfour": 1558, "osp": 1559, "ends": 1560, "port": 1561, "Ġcountry": 1562, "Ġ17": 1563, "Ġobject": 1564, "elf": 1565, "ek": 1566, "Ġplant": 1567, "ĠSome": 1568, "ĠWith": 1569, "Ġprevent": 1570, "Ġpoint": 1571, "ably": 1572, "Ġfree": 1573, "Ġcase": 1574, "ots": 1575, "ocus": 1576, "Ġfac": 1577, "ploy": 1578, "Ġrun": 1579, "Ġlo": 1580, "Ġ12": 1581, "urther": 1582, "Ġcome": 1583, "ĠNational": 1584, "Ġcond": 1585, "Ġage": 1586, "Ġview": 1587, "ĠCent": 1588, "une": 1589, "Ġlocal": 1590, "sc": 1591, "Ġstruct": 1592, "ances": 1593, "ĠChrist": 1594, "ised": 1595, "Ġpost": 1596, "Ġproblem": 1597, "Ġlab": 1598, "cing": 1599, "Ġbi": 1600, "ring": 1601, "Ġdel": 1602, "Ġtype": 1603, "Ġbro": 1604, "Ġrece": 1605, "Ġvol": 1606, "Ġmonth": 1607, "Ġconne": 1608, "Ġlist": 1609, "eg": 1610, "Ġput": 1611, "Ġpress": 1612, "Ġcreat": 1613, "Ġsuccess": 1614, "resent": 1615, "Ġlittle": 1616, "ope": 1617, "stit": 1618, "__": 1619, "Ġartic": 1620, "Ġnatural": 1621, "ething": 1622, "icult": 1623, "Ġproblems": 1624, "Ġyoung": 1625, "be": 1626, "ggest": 1627, "urope": 1628, "ression": 1629, "Ġlevels": 1630, "Ġbir": 1631, "Ġassoci": 1632, "ĠBy": 1633, "work": 1634, "Ġfar": 1635, "aper": 1636, "Ġcells": 1637, "Ġuntil": 1638, "Ġlater": 1639, "olution": 1640, "str": 1641, "Ġlet": 1642, "Ġhard": 1643, "Ġprotect": 1644, "ged": 1645, "por": 1646, "Ġamount": 1647, "ones": 1648, "Ġgiven": 1649, "ately": 1650, "Ġmaking": 1651, "Ġbook": 1652, "ledge": 1653, "ither": 1654, "Ġcho": 1655, "Ġflow": 1656, "Ġ0": 1657, "ĠAf": 1658, "Ġseem": 1659, "Ġsuggest": 1660, "Ġheart": 1661, "Ġcomput": 1662, "Ġ'": 1663, "agn": 1664, "oks": 1665, "ortun": 1666, "ĠMed": 1667, "not": 1668, "Ġmult": 1669, "Ġimpact": 1670, "Ġess": 1671, "hem": 1672, "Ġdeterm": 1673, "ides": 1674, "Ġsignificant": 1675, "Ġbehav": 1676, "Ġsw": 1677, "Ġpolit": 1678, "Ġfocus": 1679, "ured": 1680, "Ġ16": 1681, "ĠWor": 1682, "Ġshort": 1683, "uture": 1684, "Ġ$": 1685, "ĠEurope": 1686, "ication": 1687, "atory": 1688, "Ġsomething": 1689, "aps": 1690, "yd": 1691, "igned": 1692, "ĠUS": 1693, "agement": 1694, "aken": 1695, "Ġcirc": 1696, "Ġdue": 1697, "Ġcourse": 1698, "over": 1699, "Ġeducation": 1700, "Ġlikely": 1701, "ead": 1702, "Ġfunction": 1703, "ĠEar": 1704, "Ġalong": 1705, "face": 1706, "Ġcomb": 1707, "omm": 1708, "Ġinvest": 1709, "Ġvir": 1710, "Ġrad": 1711, "ĠBl": 1712, "vious": 1713, "Ġappear": 1714, "Ġfil": 1715, "Ġcommunity": 1716, "Ġalways": 1717, "Ġdays": 1718, "Ġsing": 1719, "ried": 1720, "cle": 1721, "Ġclear": 1722, "Ġsystems": 1723, "Ġteac": 1724, "ending": 1725, "Ġpast": 1726, "int": 1727, "ĠFr": 1728, "Ġdra": 1729, "ohn": 1730, "Ġdeath": 1731, "Ġline": 1732, "ternational": 1733, "oph": 1734, "Ġincrease": 1735, "Ġbrain": 1736, "pr": 1737, "Ġwords": 1738, "Ġobs": 1739, "Ġusually": 1740, "ours": 1741, "ecially": 1742, "Ġdifficult": 1743, "Ġpopulation": 1744, "12": 1745, "ĠThat": 1746, "Ġspace": 1747, "ym": 1748, "aster": 1749, "Ġabove": 1750, "Ġcreate": 1751, "Ġdescrib": 1752, "Ġmillion": 1753, "Ġresults": 1754, "Ġgive": 1755, "Ġrele": 1756, "Ġspecific": 1757, "Ġtechnology": 1758, "ape": 1759, "Ġenc": 1760, "br": 1761, "Ġconsum": 1762, "Ġtoday": 1763, "Ġcentury": 1764, "asing": 1765, "Ġexist": 1766, "Ġlanguage": 1767, "mit": 1768, "Ġexperience": 1769, "Ġsimilar": 1770, "min": 1771, "Ġwhy": 1772, "Ġauthor": 1773, "Ġneeds": 1774, "Ġrecord": 1775, "ember": 1776, "Ġdiscuss": 1777, "ively": 1778, "ptoms": 1779, "18": 1780, "Ġey": 1781, "ored": 1782, "Ġparent": 1783, "idd": 1784, "Ġtemper": 1785, "Ġcancer": 1786, "Ġspecial": 1787, "ruction": 1788, "especially": 1789, "ators": 1790, "Ġconditions": 1791, "Ġer": 1792, "ler": 1793, "ĠIm": 1794, "ĠBrit": 1795, "iation": 1796, "Ġill": 1797, "Ġcharacter": 1798, "sp": 1799, "Ġnext": 1800, "Ġmov": 1801, "Ġestab": 1802, "ribut": 1803, "Ġgre": 1804, "Ġcr": 1805, "aining": 1806, "obal": 1807, "Ġnecess": 1808, "Ġbegin": 1809, "tal": 1810, "put": 1811, "Ġask": 1812, "af": 1813, "app": 1814, "Ġfuture": 1815, "Ġvarious": 1816, "most": 1817, "Ġprop": 1818, "Ġacross": 1819, "Ġcrit": 1820, "ĠWhile": 1821, "Ġchanges": 1822, "atch": 1823, "Ġstrong": 1824, "ls": 1825, "50": 1826, "Ġside": 1827, "of": 1828, "ique": 1829, "Ġrespons": 1830, "Ġhigher": 1831, "Ġdam": 1832, "Ġhowever": 1833, "Ġapplic": 1834, "Ġnever": 1835, "Ġleast": 1836, "Ġtoget": 1837, "Ġtogether": 1838, "Ġtry": 1839, "Ġkind": 1840, "ilities": 1841, "ĠJohn": 1842, "Ġleft": 1843, "ode": 1844, "Ġprofess": 1845, "selves": 1846, "ĠDr": 1847, "orts": 1848, "ĠGen": 1849, "ateg": 1850, "aves": 1851, "Ġmot": 1852, "ĠAb": 1853, "ĠGerm": 1854, "ĠAfric": 1855, "isc": 1856, "Ġworks": 1857, "rug": 1858, "Ġbusiness": 1859, "Ġcountries": 1860, "ray": 1861, "Ġcomplete": 1862, "ĠAfter": 1863, "omes": 1864, "Ġaway": 1865, "Ġtru": 1866, "Ġresearc": 1867, "oman": 1868, "ox": 1869, "Ġrequire": 1870, "oney": 1871, "Ġcolle": 1872, "duct": 1873, "ĠGo": 1874, "Ġworking": 1875, "Ġenough": 1876, "Ġespecially": 1877, "Ġtool": 1878, "Ġimprove": 1879, "thing": 1880, "ĠWar": 1881, "oot": 1882, "Ġchem": 1883, "Ġterm": 1884, "Ġhaving": 1885, "Ġnet": 1886, "Ġways": 1887, "aim": 1888, "alf": 1889, "aces": 1890, "nal": 1891, "Ġkey": 1892, "11": 1893, "Ġgeneral": 1894, "ĠAm": 1895, "aching": 1896, "ument": 1897, "Ġplants": 1898, "Ġcy": 1899, "Ġ198": 1900, "ĠNe": 1901, "ilt": 1902, "acy": 1903, "Ġconsider": 1904, "sw": 1905, "ued": 1906, "lement": 1907, "ipp": 1908, "ĠStud": 1909, "ysis": 1910, "Ġrepresent": 1911, "ires": 1912, "Ġrelations": 1913, "Ġcases": 1914, "ĠWorld": 1915, "Ġknowledge": 1916, "Ġteam": 1917, "ges": 1918, "iting": 1919, "Ġbecame": 1920, "Ġsubject": 1921, "Ġstudies": 1922, "Ġtypes": 1923, "Ġfull": 1924, "Ġeffects": 1925, "ales": 1926, "ĠCar": 1927, "istic": 1928, "Ġsens": 1929, "ĠEnglish": 1930, "Ġprim": 1931, "ae": 1932, "Ġreason": 1933, "amm": 1934, "Ġwhether": 1935, "Ġhouse": 1936, "Ġmind": 1937, "Ġphysical": 1938, "Ġaccount": 1939, "Ġstep": 1940, "ency": 1941, "Ġpatients": 1942, "Ġnorm": 1943, "Ġmic": 1944, "Ġz": 1945, "ush": 1946, "Ġconcer": 1947, "Ġ14": 1948, "Ġgoing": 1949, "itor": 1950, "Ġground": 1951, "Ġmakes": 1952, "Ġsymptoms": 1953, "Ġfund": 1954, "side": 1955, "ĠMar": 1956, "//": 1957, "aring": 1958, "Ġ30": 1959, "ĠShe": 1960, "Ġlower": 1961, "Ġself": 1962, "net": 1963, "Ġcity": 1964, "apt": 1965, "Ġinflu": 1966, "chie": 1967, "erence": 1968, "Ġfurther": 1969, "Ġscience": 1970, "Ġpolic": 1971, "Ġparticip": 1972, "Ġrole": 1973, "ready": 1974, "ott": 1975, "ected": 1976, "ification": 1977, "ĠTr": 1978, "Ġbig": 1979, "Ġchall": 1980, "Ġnut": 1981, "NA": 1982, "ery": 1983, "Ġquestion": 1984, "Ġconnect": 1985, "ĠHealth": 1986, "ung": 1987, "acc": 1988, "for": 1989, "lo": 1990, "Ġsum": 1991, "aut": 1992, "edi": 1993, "Ġindic": 1994, "Ġeff": 1995, "Ġopt": 1996, "Ġgroups": 1997, "ĠCal": 1998, "Ġ13": 1999, "Ġstat": 2000, "Ġsure": 2001, "unt": 2002, "Ġvalue": 2003, "ird": 2004, "Ġactivities": 2005, "Ġdig": 2006, "ĠDo": 2007, "by": 2008, "Ġstory": 2009, "Ġpred": 2010, "ĠResear": 2011, "Ġens": 2012, "://": 2013, "iol": 2014, "ley": 2015, "augh": 2016, "ĠGe": 2017, "Ġtoward": 2018, "Ġbelow": 2019, "atures": 2020, "ream": 2021, "eds": 2022, "Ġoffic": 2023, "ables": 2024, "Ġactivity": 2025, "Ġlive": 2026, "ibility": 2027, "Ġresources": 2028, "Ġclose": 2029, "Ġemploy": 2030, "ules": 2031, "sych": 2032, "Ġtext": 2033, "mber": 2034, "Ġseen": 2035, "Ġrange": 2036, "Ġrather": 2037, "ites": 2038, "Ġsite": 2039, "etimes": 2040, "Ġalready": 2041, "Ġloss": 2042, "Ġgrowth": 2043, "Ġneg": 2044, "Ġproducts": 2045, "urch": 2046, "bon": 2047, "Ġwr": 2048, "oura": 2049, "urity": 2050, "Ġ11": 2051, "200": 2052, "uation": 2053, "Ġdone": 2054, "Ġrecogn": 2055, "Ġpotential": 2056, "Ġdeg": 2057, "Ġword": 2058, "Ġreally": 2059, "Ġeither": 2060, "Ġwind": 2061, "Ġmodel": 2062, "rams": 2063, "verage": 2064, "ĠMay": 2065, "Ġlot": 2066, "esc": 2067, "Ġquality": 2068, "Ġsingle": 2069, "Ġur": 2070, "Ġprob": 2071, "ands": 2072, "overed": 2073, "ĠPr": 2074, "Ġtradition": 2075, "Ġdeveloped": 2076, "ĠMan": 2077, "Ġphot": 2078, "Ġproduction": 2079, "Ġbat": 2080, "Ġflu": 2081, "Ġcollect": 2082, "Ġevidence": 2083, "let": 2084, "ĠNorth": 2085, "ER": 2086, "Ġarticle": 2087, "Ġfall": 2088, "Ġissues": 2089, "Ġdiet": 2090, "Ġfive": 2091, "ĠSoc": 2092, "Ġbuilding": 2093, "Ġoil": 2094, "Ġmass": 2095, "iple": 2096, "ĠAcc": 2097, "Ġfrequ": 2098, "Ġonce": 2099, "Ġturn": 2100, "Ġaccording": 2101, "ĠRep": 2102, "Ġnational": 2103, "Ġevent": 2104, "Ġachie": 2105, "ublic": 2106, "Ġtur": 2107, "Ġmembers": 2108, "iam": 2109, "idered": 2110, "wh": 2111, "ee": 2112, "Ġindust": 2113, "Ġdom": 2114, "Ġinit": 2115, "Ġmeet": 2116, "fact": 2117, "Ġpaper": 2118, "fer": 2119, "Ġnature": 2120, "ivil": 2121, "Ġfield": 2122, "ĠSouth": 2123, "Ġsurface": 2124, "Ġmedical": 2125, "30": 2126, "Ġabs": 2127, "Ġupon": 2128, "ont": 2129, "Ġsource": 2130, "Ġaddress": 2131, "Ġreduce": 2132, "Ġquestions": 2133, "Ġwhole": 2134, "yn": 2135, "ĠAss": 2136, "Ġtaken": 2137, "Ġrelig": 2138, "osis": 2139, "amin": 2140, "Ġsun": 2141, "Ġclimate": 2142, "Ġrate": 2143, "ibr": 2144, "ison": 2145, "ule": 2146, "Ġresearchers": 2147, "Ġskills": 2148, "ĠCont": 2149, "eter": 2150, "Ġdest": 2151, "ĠAmerica": 2152, "Ġdetail": 2153, "ĠAust": 2154, "ival": 2155, "Ġcut": 2156, "Ġconcept": 2157, "rect": 2158, "val": 2159, "Ġsent": 2160, "Ġwhite": 2161, "Ġliving": 2162, "Ġann": 2163, "Ġcame": 2164, "15": 2165, "ĠDep": 2166, "Ġdrug": 2167, "Ġcreated": 2168, "Ġhold": 2169, "Ġconsidered": 2170, "Ġwide": 2171, "Ġthemselves": 2172, "rict": 2173, "ĠAct": 2174, "ips": 2175, "Ġdoct": 2176, "Ġobserv": 2177, "Ġred": 2178, "Ġcannot": 2179, "fficient": 2180, "Ġpolitical": 2181, "ights": 2182, "Ġsoil": 2183, "Ġfri": 2184, "Ġanimals": 2185, "Ġthought": 2186, "plic": 2187, "ĠMany": 2188, "ĠHist": 2189, "Ġassociated": 2190, "Ġintrodu": 2191, "Ġsize": 2192, "ask": 2193, "illed": 2194, "Ġrecomm": 2195, "16": 2196, "roll": 2197, "leep": 2198, "reme": 2199, "ma": 2200, "Ġ197": 2201, "ournal": 2202, "org": 2203, "rel": 2204, "Ġtell": 2205, "Ġfail": 2206, "Ġstress": 2207, "Ġlay": 2208, "Ġincreased": 2209, "Ġarg": 2210, "Ġver": 2211, "Ġrights": 2212, "Ġunderstanding": 2213, "ĠEarth": 2214, "Ġpressure": 2215, "Ġhistor": 2216, "Ġbur": 2217, "Ġsimple": 2218, "ĠNo": 2219, "Ġactually": 2220, "Ġadult": 2221, "Ġpractice": 2222, "ĠYork": 2223, "sequ": 2224, "Ġmarket": 2225, "Ġpay": 2226, "ivity": 2227, "ĠHis": 2228, "Ġweek": 2229, "Ġfamil": 2230, "utions": 2231, "like": 2232, "Ġitself": 2233, "Ġsound": 2234, "Ġrequired": 2235, "Ġopportun": 2236, "ĠPe": 2237, "Ġrelated": 2238, "Ġsal": 2239, "ĠGu": 2240, "Ġrelationship": 2241, "Ġpublished": 2242, "Ġstudent": 2243, "Ġskin": 2244, "Ġentire": 2245, "Ġ=": 2246, "reg": 2247, "ging": 2248, "Ġeffective": 2249, "Ġability": 2250, "eb": 2251, "Ġcomplex": 2252, "Ġstates": 2253, "ober": 2254, "Ġpoin": 2255, "ĠX": 2256, "Ġcondition": 2257, "itud": 2258, "Ġneeded": 2259, "Ġmor": 2260, "17": 2261, "ĠEm": 2262, "Ġdoc": 2263, "epend": 2264, "ened": 2265, "yl": 2266, "AS": 2267, "Ġmaint": 2268, "Ġhtt": 2269, "Ġalmost": 2270, ".)": 2271, "Ġglobal": 2272, "artment": 2273, "aced": 2274, "Ġidea": 2275, "Ġmaterials": 2276, "Ġblack": 2277, "Ġfish": 2278, "Ġeconomic": 2279, "ulations": 2280, "ney": 2281, "Ġprovides": 2282, "Ġquick": 2283, "Ġfat": 2284, "aged": 2285, "Ġcomes": 2286, "oon": 2287, "ĠÂ": 2288, "Ġprote": 2289, "Ġhealthy": 2290, "Ġexperien": 2291, "sh": 2292, "ety": 2293, "erve": 2294, "Ġpurp": 2295, "go": 2296, "Ġengine": 2297, "Ġmanagement": 2298, "hib": 2299, "itary": 2300, "ĠState": 2301, "Ġexerc": 2302, "Ġtook": 2303, "ai": 2304, "Ġhalf": 2305, "olic": 2306, "aging": 2307, "ystem": 2308, "hing": 2309, "ĠCo": 2310, "ump": 2311, "lying": 2312, "Ġavoid": 2313, "Ġparts": 2314, "Ġmoney": 2315, "Ġansw": 2316, "ening": 2317, "ĠInter": 2318, "Ġnecessary": 2319, "ĠMost": 2320, "Ġcat": 2321, "Ġmodern": 2322, "Ġvers": 2323, "Ġsuper": 2324, "Ġpriv": 2325, "):": 2326, "gest": 2327, "Ġport": 2328, "Ġclaim": 2329, "chan": 2330, "ply": 2331, "mon": 2332, "acks": 2333, "13": 2334, "Ġsuff": 2335, "ĠMore": 2336, "Ġservices": 2337, "Ġbegan": 2338, "14": 2339, "ĠSu": 2340, "apan": 2341, "Ġweight": 2342, "oses": 2343, "ores": 2344, "ĠJew": 2345, "rad": 2346, "vere": 2347, "Ġarch": 2348, "\".": 2349, "ume": 2350, "Ġlink": 2351, "Ġarr": 2352, "ĠAlthough": 2353, "abet": 2354, "Ġbar": 2355, "Ġ100": 2356, "Ġconduct": 2357, "utes": 2358, "Ġparents": 2359, "Ġfactors": 2360, "Ġreact": 2361, "ront": 2362, "Ġassess": 2363, "Ġever": 2364, "Ġgas": 2365, "Ġmeasure": 2366, "ese": 2367, "ĠHere": 2368, "my": 2369, "Ġcop": 2370, "ences": 2371, "irm": 2372, "Ġcomputer": 2373, "Ġgreen": 2374, "Ġpath": 2375, "Ġfire": 2376, "Ġyet": 2377, "uel": 2378, "Ġ196": 2379, "rown": 2380, "Ġpattern": 2381, "urs": 2382, "Ġcoll": 2383, "Ġmonths": 2384, "Ġapproach": 2385, "Ġproduce": 2386, "Ġanc": 2387, "ensive": 2388, "Ġregion": 2389, "abit": 2390, "eding": 2391, "Ġ50": 2392, "ĠResearch": 2393, "Ġtherap": 2394, "ĠBritish": 2395, "Ġhours": 2396, "izing": 2397, "ĠCanad": 2398, "nces": 2399, "Ġsense": 2400, "Ġchemical": 2401, "enn": 2402, "iction": 2403, "bo": 2404, "Ġthroughout": 2405, "Ġregard": 2406, "Ġaction": 2407, "Ġstop": 2408, "Ġcolor": 2409, "Ġsepar": 2410, "Ġmedic": 2411, "Ġanalysis": 2412, "empt": 2413, "Ġprinc": 2414, "based": 2415, "ĠInstit": 2416, "Ġemer": 2417, "Ġpopular": 2418, "Ġincreasing": 2419, "Ġliter": 2420, "Ġsam": 2421, "Ġjob": 2422, "usion": 2423, "ript": 2424, "Ġplane": 2425, "Ġrecent": 2426, "ederal": 2427, "Ġtar": 2428, "Ġsoft": 2429, "Ġtaking": 2430, "igure": 2431, "Ġdog": 2432, "Ġpersonal": 2433, "hold": 2434, "Ġut": 2435, "Ġprevious": 2436, "iddle": 2437, "ĠSec": 2438, "Ġwin": 2439, "Ġbehavior": 2440, "ĠJapan": 2441, "Ġcalc": 2442, "estern": 2443, "Ġ25": 2444, "abor": 2445, "Ġonline": 2446, "ternal": 2447, "erous": 2448, "uck": 2449, "Ġtalk": 2450, "Ġcontent": 2451, "Ġge": 2452, "gar": 2453, "ĠOther": 2454, "Ġreading": 2455, "Ġfarm": 2456, "Ġlonger": 2457, "Ġservice": 2458, "Ġshows": 2459, "ĠSchool": 2460, "Ġrepl": 2461, "ches": 2462, "onse": 2463, "Ġsix": 2464, "ronic": 2465, "ĠPer": 2466, "Ġposition": 2467, "Ġindividuals": 2468, "Ġtraining": 2469, "Ġsex": 2470, "Ġwriting": 2471, "ĠFl": 2472, "Ġconc": 2473, "Ġenvironmental": 2474, "pid": 2475, "Ġinteract": 2476, "--": 2477, "ising": 2478, "pro": 2479, "Ġstructure": 2480, "Ġmatter": 2481, "ES": 2482, "Ġmeaning": 2483, "Ġindustry": 2484, "ze": 2485, "Ġdisord": 2486, "Ġheat": 2487, "ĠAccording": 2488, "Ġbuilt": 2489, "Ġtotal": 2490, "son": 2491, "Ġla": 2492, "Ġcompany": 2493, "ĠII": 2494, "asc": 2495, "yle": 2496, "Ġsociety": 2497, "Ġprovided": 2498, "Ġheav": 2499, "Ġterms": 2500, "Ġthing": 2501, "vey": 2502, "ĠMe": 2503, "Ġbring": 2504, "ĠInt": 2505, "Ġcheck": 2506, "emic": 2507, "minist": 2508, "oll": 2509, "Ġast": 2510, "ĠQu": 2511, "ows": 2512, "Ã©": 2513, "Ġdeb": 2514, "Ġtrue": 2515, "anced": 2516, "Ġcontact": 2517, "Ġsurv": 2518, "lands": 2519, "ĠPre": 2520, "AT": 2521, "Ġcaused": 2522, "ĠYour": 2523, "Ġinj": 2524, "lt": 2525, "Ġbreak": 2526, "itation": 2527, "Ġetc": 2528, "Ġaccept": 2529, "Ġdesigned": 2530, "ners": 2531, "Ġtemperature": 2532, "ricult": 2533, "ropri": 2534, "ns": 2535, "Ġlives": 2536, "ĠApp": 2537, "istance": 2538, "Ġcontain": 2539, "Ġce": 2540, "Ġviol": 2541, "fully": 2542, "Ġincludes": 2543, "aries": 2544, "aily": 2545, "reng": 2546, "rought": 2547, "aff": 2548, "Ġprograms": 2549, "ĠFrom": 2550, "etic": 2551, "Ġsat": 2552, "Ġbenefits": 2553, "Ġcauses": 2554, "Ġsleep": 2555, "Ġshown": 2556, "Ġeasy": 2557, "Ġrev": 2558, "astic": 2559, "Ġvide": 2560, "iment": 2561, "Ġtravel": 2562, "Ġmethods": 2563, "ĠPres": 2564, "Ġmusic": 2565, "Ġvariety": 2566, "inary": 2567, "duc": 2568, "ister": 2569, "ĠKing": 2570, "ID": 2571, "ban": 2572, "ene": 2573, "Ġdiagn": 2574, "imately": 2575, "Ġbelieve": 2576, "hood": 2577, "Ġschools": 2578, "ched": 2579, "Ġlove": 2580, "Ġthreat": 2581, "Ġrelative": 2582, "ĠPart": 2583, "istics": 2584, "Ġpositive": 2585, "Ġsimply": 2586, "mb": 2587, "Ġface": 2588, "Ġmach": 2589, "ĠWill": 2590, "Ġvari": 2591, "ĠPar": 2592, "Ġ194": 2593, "Ġsometimes": 2594, "Ġsafe": 2595, "Ġearth": 2596, "ĠComp": 2597, "Ġfem": 2598, "ĠMin": 2599, "Ġgreater": 2600, "Ġsubst": 2601, "Ġculture": 2602, "ĠScience": 2603, "dom": 2604, "Ġregular": 2605, "Ġfru": 2606, "aving": 2607, "Ġled": 2608, "AR": 2609, "Ġspread": 2610, "Ġste": 2611, "Ġpage": 2612, "rior": 2613, "amed": 2614, "Ġoriginal": 2615, "ĠAustral": 2616, "ades": 2617, "ĠCons": 2618, "Ġissue": 2619, "Ġstandard": 2620, "Ġorigin": 2621, "Ġbacter": 2622, "Ġtarget": 2623, "Ġmicro": 2624, "Ġeat": 2625, "ĠEd": 2626, "Ġaverage": 2627, "ĠâĢ¢": 2628, "ĠNot": 2629, "Ġmedia": 2630, "Ġmovement": 2631, "ucle": 2632, "Ġcarbon": 2633, "Ġslow": 2634, "Ġple": 2635, "ĠUs": 2636, "rast": 2637, "ĠRec": 2638, "osition": 2639, "Ġreported": 2640, "rench": 2641, "Ġwild": 2642, "Ġdeep": 2643, "Ġcamp": 2644, "Ġuses": 2645, "Ġlif": 2646, "Ġevents": 2647, "Ġprec": 2648, "Ġscientists": 2649, "Ġexc": 2650, "Ġinvolved": 2651, "Ġclean": 2652, "Ġrespect": 2653, "Ġwritten": 2654, "na": 2655, "cil": 2656, "Ġdemon": 2657, "ervation": 2658, "Ġ--": 2659, "Ġmechan": 2660, "ufact": 2661, "ĠIndia": 2662, "Ġidentify": 2663, "Ġencoura": 2664, "ulate": 2665, "aches": 2666, "lex": 2667, "Ġdoing": 2668, "aling": 2669, "ĠOf": 2670, "Ġpoll": 2671, "Ġpict": 2672, "uge": 2673, "umb": 2674, "Ġcompan": 2675, "Ġpsych": 2676, "Ġfoods": 2677, "Ġforms": 2678, "ctions": 2679, "idge": 2680, "Ġrefer": 2681, "Ġsources": 2682, "arily": 2683, "Ġec": 2684, "Ġimage": 2685, "Ġhelps": 2686, "Ġforest": 2687, "atives": 2688, "ief": 2689, "ius": 2690, "ength": 2691, "Ġimplement": 2692, "Ġbasic": 2693, "ĠHar": 2694, "ender": 2695, "eration": 2696, "ĠChina": 2697, "Ġsqu": 2698, "verse": 2699, "Ġparticularly": 2700, "Ġlack": 2701, "Ġoutside": 2702, "Ġ...": 2703, "ington": 2704, "Ġstreng": 2705, "Ġnormal": 2706, "Ġshare": 2707, "Ġcompet": 2708, "Ġresponse": 2709, "rand": 2710, "ĠAug": 2711, "Ġdeveloping": 2712, "Ġmag": 2713, "ials": 2714, "Ġemb": 2715, "Ġreturn": 2716, "Ġforce": 2717, "bor": 2718, "ached": 2719, "oor": 2720, "Ġpoor": 2721, "know": 2722, "Ġattempt": 2723, "Ġdamage": 2724, "ĠNow": 2725, "Ġreview": 2726, "oles": 2727, "Ġsust": 2728, "ĠFirst": 2729, "ops": 2730, "Ġlate": 2731, "Ġattention": 2732, "light": 2733, "Ġensure": 2734, "uth": 2735, "rated": 2736, "Ġgenerally": 2737, "isions": 2738, "Ġ24": 2739, "Ġnetwork": 2740, "Ġlog": 2741, "ĠBec": 2742, "Ġserious": 2743, "Ġbal": 2744, "Ġinteg": 2745, "ĠEduc": 2746, "ĠJan": 2747, "Ġremov": 2748, "Ġtax": 2749, "Ġharm": 2750, "ĠOur": 2751, "ĠCO": 2752, "Ġemot": 2753, "Ġappl": 2754, "ĠDuring": 2755, "Ġgrowing": 2756, "Ġideas": 2757, "Ġanimal": 2758, "Ġcompon": 2759, "Ġaff": 2760, "hest": 2761, "Ġap": 2762, "Ġvisit": 2763, "Ġessential": 2764, "Ġcoun": 2765, "ĠCount": 2766, "Ġcust": 2767, "ĠAg": 2768, "ĠJu": 2769, "ĠCor": 2770, "Ġextreme": 2771, "Ġproduced": 2772, "Ġdraw": 2773, "Ġsou": 2774, "Ġconsist": 2775, "fect": 2776, "Ġteachers": 2777, "Ġsafety": 2778, "Ġmess": 2779, "Ġwood": 2780, "yr": 2781, "ises": 2782, "ĠGl": 2783, "hel": 2784, "Ġsea": 2785, "Ġfeet": 2786, "Ġseries": 2787, "osure": 2788, "ĠBo": 2789, "Ġdefin": 2790, "eed": 2791, "ĠJes": 2792, "Ġwebs": 2793, "Ġlat": 2794, "Ġchalleng": 2795, "Ġattack": 2796, "Ġcontinue": 2797, "ĠCenter": 2798, "Ġcross": 2799, "ulated": 2800, "Ġelectric": 2801, "imum": 2802, "Ġcorrect": 2803, "Ġcit": 2804, "Ġexpress": 2805, "Ġnumbers": 2806, "irit": 2807, "ĠKe": 2808, "ana": 2809, "Ġaware": 2810, "25": 2811, "ribution": 2812, "ĠChild": 2813, "Ġveget": 2814, "Ġago": 2815, "elling": 2816, "Ġincluded": 2817, "Ġdispl": 2818, "IN": 2819, "Ġprobably": 2820, "Ġselect": 2821, "ĠAc": 2822, "oly": 2823, "Ġcommit": 2824, "osing": 2825, "Ġinternational": 2826, "Ġox": 2827, "Ġnight": 2828, "set": 2829, "cies": 2830, "Ġindepend": 2831, "Ġir": 2832, "Ġmother": 2833, "rim": 2834, "Ġtherefore": 2835, "ming": 2836, "IS": 2837, "Ġprep": 2838, "ĠMy": 2839, "room": 2840, "Ġpatient": 2841, "ided": 2842, "erg": 2843, "Ġhyd": 2844, "issions": 2845, "ĠTw": 2846, "Ġfa": 2847, "uary": 2848, "Ġtakes": 2849, "Ġ/": 2850, "Ġgetting": 2851, "haps": 2852, "Th": 2853, "vention": 2854, "ĠEl": 2855, "rie": 2856, "Ġsomeone": 2857, "Ġ,": 2858, "Ġcover": 2859, "ha": 2860, "erson": 2861, "ads": 2862, "ties": 2863, "ror": 2864, "Ġdou": 2865, "Ġconcent": 2866, "Ġkids": 2867, "Ġvirus": 2868, "Ġmanufact": 2869, "Ġinstead": 2870, "ground": 2871, "Ġthus": 2872, "ems": 2873, "ĠCalif": 2874, "Ġdoesn": 2875, "Ġwall": 2876, "Ġpolicy": 2877, "ying": 2878, "22": 2879, "ĠSm": 2880, "Ġeasily": 2881, "Ġeth": 2882, "overy": 2883, "Ġfinanc": 2884, "Ġbase": 2885, "Ġearl": 2886, "inks": 2887, "Ġcommunities": 2888, "Ġleaders": 2889, "Ġdaily": 2890, "ino": 2891, "Ġjoin": 2892, "Ġlooking": 2893, "Ġestablished": 2894, "iot": 2895, "Ġdetermine": 2896, "abetes": 2897, "Ġappropri": 2898, "Ġinstit": 2899, "Ġdiv": 2900, "Ġestim": 2901, "Ġdang": 2902, "asons": 2903, "Ġful": 2904, "Ġpoints": 2905, "Ġquite": 2906, "www": 2907, "Ġcra": 2908, "ension": 2909, "Ġtown": 2910, "rew": 2911, "Ġi": 2912, "Ġdifference": 2913, "Ġadded": 2914, "Ġtraditional": 2915, "itude": 2916, "Ġheld": 2917, "ĠFrench": 2918, "ĠEven": 2919, "Ġinvestig": 2920, "ography": 2921, "Ġbooks": 2922, "Ġtheory": 2923, "Ġ40": 2924, "Ġvacc": 2925, "Ġmilitary": 2926, "Ġcolon": 2927, "Ġcompared": 2928, "ĠChar": 2929, "Ġallows": 2930, "ĠIndian": 2931, "Ġeval": 2932, "Ġsecurity": 2933, "ĠInstitute": 2934, "ĠSince": 2935, "Ġbab": 2936, "Ġthird": 2937, "Ġreflect": 2938, "Ġtree": 2939, "useum": 2940, "Ġnation": 2941, "Ġvit": 2942, "Ġcapt": 2943, "ĠTra": 2944, "cell": 2945, "Ġsect": 2946, "Ġthous": 2947, "Ġ2010": 2948, "ĠDepartment": 2949, "Ġunique": 2950, "Ġstarted": 2951, "ĠGerman": 2952, "Ġtools": 2953, "uman": 2954, "Ġimmedi": 2955, "Ġsold": 2956, "Ġperformance": 2957, "ĠCaliforn": 2958, "Ġprimary": 2959, "ellow": 2960, "Ġcivil": 2961, "Ġlarger": 2962, "anks": 2963, "ĠEuropean": 2964, "Ġwarm": 2965, "Ġinside": 2966, "ĠRuss": 2967, "Ġfav": 2968, "Ġreve": 2969, "ille": 2970, "Ġsolar": 2971, "rate": 2972, "Ġdirectly": 2973, "where": 2974, "ĠReg": 2975, "olec": 2976, "Ġscientific": 2977, "undred": 2978, "Ġmultiple": 2979, "Ġdemonstr": 2980, "OR": 2981, "ĠMarch": 2982, "ancy": 2983, "ĠJune": 2984, "Ġfamilies": 2985, "Ġaltern": 2986, "ĠHer": 2987, "Ġ2012": 2988, "Ġcompanies": 2989, "hic": 2990, "Ġprogress": 2991, "Ġoffer": 2992, "Ġquickly": 2993, "Ġachieve": 2994, "ift": 2995, "Ġmental": 2996, "Ġhumans": 2997, "Ġtrees": 2998, "Ġbit": 2999, "Ġdiseases": 3000, "Ġdecre": 3001, "ĠHistory": 3002, "ĠMon": 3003, "Ġadditional": 3004, "Ġspeak": 3005, "Ġeye": 3006, "ounds": 3007, "ĠCalifornia": 3008, "Ġtri": 3009, "Ġdocument": 3010, "Ġhor": 3011, "AN": 3012, "Ġhost": 3013, "Ġsil": 3014, "Ġnegative": 3015, "Ġhttp": 3016, "Ġaspect": 3017, "ĠLear": 3018, "Ġhighly": 3019, "Ġwent": 3020, "Ġalthough": 3021, "Ġseems": 3022, "Ġtend": 3023, "Ġtiss": 3024, "ĠOct": 3025, "ĠBar": 3026, "Ġfoot": 3027, "rs": 3028, "Ġbehind": 3029, "Ġrout": 3030, "Ġbirth": 3031, "Ġactive": 3032, "Ġanswer": 3033, "Ġhar": 3034, "ĠApr": 3035, "hern": 3036, "Ġhy": 3037, "Ġextra": 3038, "Ġproced": 3039, "Ġexercise": 3040, "ĠAnt": 3041, "ilos": 3042, "ĠWest": 3043, "ĠDav": 3044, "____": 3045, "Ġtransport": 3046, "Ġaud": 3047, "Ġhabit": 3048, "Ġlabor": 3049, "ĠWhy": 3050, "Ġsevere": 3051, "joy": 3052, "ĠAugust": 3053, "ĠInternational": 3054, "Ġdrink": 3055, "Ġfeed": 3056, "Ġdry": 3057, "ĠRead": 3058, "yond": 3059, "Ġsoon": 3060, "iers": 3061, "omet": 3062, "Ġdoctor": 3063, "Ġfram": 3064, "nov": 3065, "Ġwalk": 3066, "ĠBecause": 3067, "Ġbeginning": 3068, "Ġcritical": 3069, "Ġteaching": 3070, "Ġinterp": 3071, "cean": 3072, "ĠJesus": 3073, "mar": 3074, "Ġprotein": 3075, "Ġcentral": 3076, "Ġelements": 3077, "ĠBr": 3078, "Ġbroad": 3079, "ĠSept": 3080, "uries": 3081, "iency": 3082, "Ġprior": 3083, "Ġanaly": 3084, "Ġacid": 3085, "iques": 3086, "Ġwhose": 3087, "ĠMus": 3088, "rition": 3089, "Ġuseful": 3090, "ĠAfrican": 3091, "Ġfront": 3092, "gency": 3093, "Ġinfection": 3094, "ĠInc": 3095, "iber": 3096, "eks": 3097, "Ġnucle": 3098, "Ġvideo": 3099, "coh": 3100, "Ġsus": 3101, "Ġtowards": 3102, "den": 3103, "ON": 3104, "ĠChristian": 3105, "Ġhot": 3106, "nel": 3107, "iter": 3108, "Ġ2011": 3109, "Ġsupply": 3110, "Ġnorth": 3111, "Ġbad": 3112, "Ġvalues": 3113, "rogen": 3114, "orthern": 3115, "vant": 3116, "Ġleading": 3117, "Ġsituation": 3118, "Ġlimited": 3119, "Ġancient": 3120, "Ġgard": 3121, "Ġlost": 3122, "inese": 3123, "Ġ21": 3124, "ĠGree": 3125, "21": 3126, "pe": 3127, "Ġstay": 3128, "Ġcontribut": 3129, "Ġsection": 3130, "Ġexpect": 3131, "Ġpurpose": 3132, "oes": 3133, "olar": 3134, "thern": 3135, "formation": 3136, "Ġaim": 3137, "ĠSch": 3138, "Ġobt": 3139, "ĠRet": 3140, "Ġmount": 3141, "We": 3142, "Ġelse": 3143, "Ġblock": 3144, "ĠJuly": 3145, "Ġstri": 3146, "ĠSw": 3147, "lation": 3148, "Ġdecl": 3149, "cks": 3150, "Ġprotection": 3151, "Ġthinking": 3152, "Ġaccur": 3153, "ĠAlso": 3154, "Ġdescribed": 3155, "oming": 3156, "Ġhundred": 3157, "Ġminutes": 3158, "Ġstrateg": 3159, "isms": 3160, "23": 3161, "aly": 3162, "Ġfeatures": 3163, "Ġord": 3164, "ĠThen": 3165, "Ġfight": 3166, "oring": 3167, "Ġcard": 3168, "Ġbrought": 3169, "term": 3170, "ĠSim": 3171, "ologies": 3172, "sect": 3173, "ils": 3174, "ching": 3175, "Ġclin": 3176, "elt": 3177, "Ġcustom": 3178, "Ġcontains": 3179, "ĠWash": 3180, "Ġimages": 3181, "wise": 3182, "Ġnews": 3183, "Ġlargest": 3184, "lection": 3185, "Ġmom": 3186, "Ġprivate": 3187, "Ġdark": 3188, "Ġquant": 3189, "Ġsymb": 3190, "IC": 3191, "Ġfast": 3192, "Ġadminist": 3193, "ĠPress": 3194, "fort": 3195, "ĠApril": 3196, "ĠAfrica": 3197, "Ġones": 3198, "Ġsearch": 3199, "ĠCong": 3200, "Ġdecision": 3201, "Ġreceived": 3202, "Ġx": 3203, "Ġgame": 3204, "Ġcapital": 3205, "Ġsustain": 3206, "mission": 3207, "Ġadults": 3208, "ĠProg": 3209, "Ġjud": 3210, "Ġcred": 3211, "ĠMc": 3212, "Ġdisp": 3213, "ĠDis": 3214, "istry": 3215, "Ġinfluence": 3216, "Ġrequires": 3217, "Ġhands": 3218, "ields": 3219, "Ġexact": 3220, "ĠServ": 3221, "ibrary": 3222, "oke": 3223, "Ġlength": 3224, "Ġshall": 3225, "Ġsoftware": 3226, "Ġenjoy": 3227, "att": 3228, "Ġang": 3229, "inct": 3230, "Ġfinancial": 3231, "Ġwrite": 3232, "Ġagricult": 3233, "Ġcarry": 3234, "hens": 3235, "Ġlaws": 3236, "Ġcapac": 3237, "bit": 3238, "Ġgoal": 3239, "Ġgot": 3240, "pper": 3241, "Ġlines": 3242, "izations": 3243, "Ġagree": 3244, "ĠGovern": 3245, "40": 3246, "Ġlocated": 3247, "arian": 3248, "Ġpack": 3249, "Ġwa": 3250, "Ġestablish": 3251, "Ġwaste": 3252, "Ġsouth": 3253, "rote": 3254, "Ġadop": 3255, "ster": 3256, "Ġexcept": 3257, "iles": 3258, "ĠAmericans": 3259, "ext": 3260, "Ġnearly": 3261, "ĠChinese": 3262, "Ġ2009": 3263, "Ġremains": 3264, "uk": 3265, "Ġrates": 3266, "Ġapplication": 3267, "imin": 3268, "Ġreach": 3269, "ĠRiver": 3270, "ription": 3271, "ĠEducation": 3272, "arr": 3273, "Ġ*": 3274, "Ġreligious": 3275, "Ġbecomes": 3276, "gn": 3277, "Ġplaces": 3278, "Ġmill": 3279, "Ġstra": 3280, "rag": 3281, "idents": 3282, "Ġimportance": 3283, "ĠWilliam": 3284, "Ġegg": 3285, "ĠAssoci": 3286, "ĠFin": 3287, "Ġbeaut": 3288, "Ġtold": 3289, "ĠTrans": 3290, "Ġbacteria": 3291, "Ġtests": 3292, "used": 3293, "Ġsites": 3294, "60": 3295, "Ġdemand": 3296, "âĢĿ.": 3297, "Ġworkers": 3298, "Ġproperty": 3299, "ĠJust": 3300, "Ġefforts": 3301, "Ġult": 3302, "Ġcool": 3303, "cohol": 3304, "Ġspeed": 3305, "Ġleaves": 3306, "ĠCanada": 3307, "Ġvehic": 3308, "Ġseason": 3309, "Ġweeks": 3310, "Ġsaw": 3311, "ĠPeople": 3312, "Ġappropriate": 3313, "Ġprojects": 3314, "med": 3315, "Ġcenter": 3316, "Ġcosts": 3317, "ĠPresident": 3318, "odies": 3319, "Ġcommand": 3320, "Ġmemory": 3321, "Ġtypically": 3322, "Ġep": 3323, "Ġremain": 3324, "see": 3325, "Ġmention": 3326, "Ġrare": 3327, "Ġfather": 3328, "ĠCity": 3329, "Ġsurround": 3330, "Ġhimself": 3331, "aid": 3332, "estic": 3333, "Ġmiles": 3334, "IV": 3335, "Ġdead": 3336, "Ġdevices": 3337, "Ġbasis": 3338, "ĠAre": 3339, "cial": 3340, "ran": 3341, "ĠDay": 3342, "itis": 3343, "Ġsn": 3344, "ipment": 3345, "rael": 3346, "Ġfit": 3347, "Ġstru": 3348, "Ġvict": 3349, "Ġcitiz": 3350, "'re": 3351, "ĠOver": 3352, "Ġdeal": 3353, "Ġrespond": 3354, "Ġaccom": 3355, "entially": 3356, "imal": 3357, "Ġwebsite": 3358, "Ġborn": 3359, "Ġcommunication": 3360, "oud": 3361, "ĠEngland": 3362, "Ġfederal": 3363, "Ġsugar": 3364, "Ġtable": 3365, "Ġfriends": 3366, "PA": 3367, "cles": 3368, "ype": 3369, "ham": 3370, "Ġeating": 3371, "ĠLet": 3372, "80": 3373, "itect": 3374, "ceed": 3375, "Ġtechniques": 3376, "Ġmis": 3377, "ĠBi": 3378, "vest": 3379, "uous": 3380, "ira": 3381, "Ġpractices": 3382, "ĠHigh": 3383, "Ġrapid": 3384, "lim": 3385, "raft": 3386, "Ġforces": 3387, "Ġprocesses": 3388, "uments": 3389, "life": 3390, "In": 3391, "Ġanything": 3392, "ĠTechn": 3393, "Ġdigital": 3394, "199": 3395, "resh": 3396, "ĠUse": 3397, "Ġdied": 3398, "Ġteacher": 3399, "Ġcoast": 3400, "Ġimag": 3401, "ĠDevelop": 3402, "izes": 3403, "Ġcultural": 3404, "ĠJanuary": 3405, "ĠAnother": 3406, "ann": 3407, "iece": 3408, "ĠFeb": 3409, "Ġsolution": 3410, "Ġcreating": 3411, "udd": 3412, "Ġadj": 3413, "ĠEach": 3414, "ĠRed": 3415, "iar": 3416, "Ġnothing": 3417, "alled": 3418, "come": 3419, "Ġ2008": 3420, "Ġeyes": 3421, "Ġconstruction": 3422, "eal": 3423, "ĠWashington": 3424, "Ġsummer": 3425, "Ġder": 3426, "Ġson": 3427, "ĠPol": 3428, "Ġtesting": 3429, "Ġeverything": 3430, "Ġtherapy": 3431, "Ġresponsible": 3432, "Ġ2013": 3433, ");": 3434, "Ġ:": 3435, "cember": 3436, "year": 3437, "Ġgives": 3438, "ĠInst": 3439, "water": 3440, "Ġobjects": 3441, "Ġadapt": 3442, "ĠSeptember": 3443, "Ġcou": 3444, "ĠGreat": 3445, "Ġfollowed": 3446, "Ġlegal": 3447, "EN": 3448, "ĠOnce": 3449, "ovember": 3450, "Ġhope": 3451, "aul": 3452, "aught": 3453, "Ġapplications": 3454, "Ġbeyond": 3455, "omy": 3456, "Ġmonitor": 3457, "Ġdevice": 3458, "Ġspirit": 3459, "ondon": 3460, "Ġadvant": 3461, "Ġmolec": 3462, "Ġdepend": 3463, "ama": 3464, "Ġasked": 3465, "back": 3466, "ford": 3467, "Ġ23": 3468, "Ġmix": 3469, "Ġdiabetes": 3470, "Ġhous": 3471, "ĠWater": 3472, "ĠSee": 3473, "ĠJournal": 3474, "Ġanti": 3475, "Ġinfect": 3476, "Ġpen": 3477, "ED": 3478, "Ġgradu": 3479, "Ġreasons": 3480, "Ġtit": 3481, "Ġbul": 3482, "Ġrecently": 3483, "Ġconsequ": 3484, "Ġbott": 3485, "Ġcode": 3486, "Ġbenefit": 3487, "Ġolder": 3488, "Ġice": 3489, "ĠPark": 3490, "Ġfuel": 3491, "Ġcele": 3492, "Ġcommunic": 3493, "Ġweb": 3494, "ĠIsrael": 3495, "Ġconstit": 3496, "apter": 3497, "Ġfinal": 3498, "Ġtrade": 3499, "Ġcam": 3500, "Ġcrop": 3501, "Ġmiddle": 3502, "Ġchoose": 3503, "illing": 3504, "24": 3505, "Ġbehavi": 3506, "ĠSur": 3507, "ĠOctober": 3508, "ĠCommun": 3509, "Ġseek": 3510, "Ġorganization": 3511, "iples": 3512, "Ġscreen": 3513, "ĠMod": 3514, "ocol": 3515, "Ġexamples": 3516, "mosp": 3517, "Ġautom": 3518, "sec": 3519, "Ġexpected": 3520, "ogen": 3521, "wor": 3522, "Ġcru": 3523, "Ġrain": 3524, "ĠSystem": 3525, "ĠArch": 3526, "ĠRoman": 3527, "Ġproviding": 3528, "ĠLaw": 3529, "Ġten": 3530, "Ġcold": 3531, "anish": 3532, "exic": 3533, "Ġking": 3534, "ĠChurch": 3535, "ĠVir": 3536, "Ġsequ": 3537, "IT": 3538, "Ġmid": 3539, "Ġroom": 3540, "enge": 3541, "Ġcontroll": 3542, "Ġfile": 3543, "Ġfear": 3544, "ĠIS": 3545, "Ġplanet": 3546, "Ġsmaller": 3547, "ought": 3548, "Ġdate": 3549, "ests": 3550, "Ġreceive": 3551, "Ġbreat": 3552, "Ġprin": 3553, "Ġdestro": 3554, "strial": 3555, "Ġstandards": 3556, "head": 3557, "Ġstage": 3558, "Ġopportunity": 3559, "ĠPat": 3560, "Ġund": 3561, "Ġ2007": 3562, "Ġaffected": 3563, "Ġrules": 3564, "ĠVal": 3565, "Ġcurrently": 3566, "Ġdifferences": 3567, "itable": 3568, "Ġeffort": 3569, "Ġscale": 3570, "Ġalone": 3571, "ĠSan": 3572, "Ġeconomy": 3573, "time": 3574, "edia": 3575, "bur": 3576, "Ġwoman": 3577, "Ġpurch": 3578, "Ġinstru": 3579, "Ġvia": 3580, "book": 3581, "Ġapprox": 3582, "Ġsett": 3583, "ding": 3584, "It": 3585, "Ġeveryone": 3586, "Ġcompletely": 3587, "Ġwrote": 3588, "Ġbeg": 3589, "Ġtrying": 3590, "Ġcontinued": 3591, "ony": 3592, "Ġformer": 3593, "Ġequipment": 3594, "Ġhyp": 3595, "Ġuser": 3596, "ula": 3597, "Ġgoes": 3598, "ĠBlack": 3599, "Ġlocation": 3600, "Ġdegree": 3601, "ĠGeneral": 3602, "ĠCoun": 3603, "ribute": 3604, "Ġyourself": 3605, "AC": 3606, "rees": 3607, "Ġoccup": 3608, "Ġshape": 3609, "Ġbirds": 3610, "ellig": 3611, "Ġinsp": 3612, "ĠDecember": 3613, "Ġâ": 3614, "Ġoccurs": 3615, "Ġconflic": 3616, "edom": 3617, "ĠCur": 3618, "Ġ22": 3619, "Ġteeth": 3620, "ĠProf": 3621, "ĠNovember": 3622, "Ġelectr": 3623, "Ġpet": 3624, "Ġsuccessful": 3625, "tery": 3626, "ĠEast": 3627, "airs": 3628, "Ġ193": 3629, "men": 3630, "Ġearlier": 3631, "Ġnamed": 3632, "Ġmodels": 3633, "Ġneigh": 3634, "Ġmember": 3635, "ocks": 3636, "iable": 3637, "Ġexposure": 3638, "ĠCounty": 3639, "Ġwinter": 3640, "lin": 3641, "Ġrecommend": 3642, "Ġconstant": 3643, "ĠCour": 3644, "mitted": 3645, "Ġhon": 3646, "Ġbillion": 3647, "Ġwon": 3648, "Ġprofessional": 3649, "Ġ60": 3650, "ocr": 3651, "Ġrock": 3652, "Ġcommonly": 3653, "oe": 3654, "load": 3655, "ĠDon": 3656, "equ": 3657, "omb": 3658, "Ġleave": 3659, "Ġusers": 3660, "Ġguid": 3661, "Ġcollection": 3662, "ĠTod": 3663, "ingu": 3664, "Ġgenetic": 3665, "ĠMexic": 3666, "Ġteach": 3667, "Ġswe": 3668, "Ġinteresting": 3669, "ĠUnder": 3670, "Ġvisual": 3671, "Ġpoly": 3672, "Ġoverall": 3673, "Ġdrugs": 3674, "Ġplaced": 3675, "emy": 3676, "Ġcourt": 3677, "ĠThus": 3678, "Ġpregn": 3679, "Ġmeasures": 3680, "ĠLondon": 3681, "Ġdiscovered": 3682, "iest": 3683, "Ġmaintain": 3684, "hemat": 3685, "Ġallowed": 3686, "wide": 3687, "ensity": 3688, "Ġgold": 3689, "Ġeight": 3690, "Ġreduced": 3691, "Ġmiss": 3692, "Ġcateg": 3693, "Ġstrength": 3694, "rig": 3695, "lamm": 3696, "uff": 3697, "ĠProt": 3698, "Ġmax": 3699, "aur": 3700, "Ġden": 3701, "Ġvirt": 3702, "uit": 3703, "Ġgir": 3704, "Ġrule": 3705, "aters": 3706, "Ġsch": 3707, "Ġformed": 3708, "Ġsteps": 3709, "irection": 3710, "Ġchurch": 3711, "vert": 3712, "ech": 3713, "ruary": 3714, "Ġapplied": 3715, "Ġrise": 3716, "Ġperfect": 3717, "Ġperhaps": 3718, "Ġphilos": 3719, "Ġenter": 3720, "Ġhistorical": 3721, "Ġidentified": 3722, "ĠTheir": 3723, "het": 3724, "ibly": 3725, "Ġwond": 3726, "amic": 3727, "ĠAut": 3728, "Ġvill": 3729, "ĠRel": 3730, "Ġcontext": 3731, "ospital": 3732, "Ġweather": 3733, "Ġshowed": 3734, "Ġfruit": 3735, "Ġisn": 3736, "ios": 3737, "Ġexec": 3738, "Ġgave": 3739, "hy": 3740, "Ġpatterns": 3741, "Ġnote": 3742, "rick": 3743, "Ġpowerful": 3744, "Ġdisplay": 3745, "Ġcommerc": 3746, "Ġcook": 3747, "Ġrich": 3748, "encies": 3749, "orge": 3750, "Ġcoming": 3751, "Ġenh": 3752, "Ġfair": 3753, "ords": 3754, "ĠSociety": 3755, "Ġpow": 3756, "gypt": 3757, "ĠEnvironment": 3758, "Ġacqu": 3759, "Ġroad": 3760, "Ġmajority": 3761, "Ġsymbol": 3762, "ĠDNA": 3763, "Ġsitu": 3764, "Ġnutri": 3765, "Ġpresence": 3766, "Ġmob": 3767, "off": 3768, "ica": 3769, "Ġactions": 3770, "odes": 3771, "que": 3772, "itch": 3773, "Ġbelief": 3774, "Ġrob": 3775, "Ġtox": 3776, "ĠPublic": 3777, "Ġ27": 3778, "phas": 3779, "ĠConf": 3780, "Ġversion": 3781, "Ġstatus": 3782, "ĠAustralia": 3783, "aled": 3784, "Ġ28": 3785, "Ġpeace": 3786, "Ġtrack": 3787, "\",": 3788, "ĠGermany": 3789, "Ġdidn": 3790, "Ġrelatively": 3791, "ĠHouse": 3792, "Ġ195": 3793, "iate": 3794, "Ġatmosp": 3795, "ĠJewish": 3796, "Ġ26": 3797, "reet": 3798, "iful": 3799, "ĠChildren": 3800, "Ġunit": 3801, "unch": 3802, "Ġtele": 3803, "Ġtou": 3804, "oration": 3805, "Ġfully": 3806, "Ġalcohol": 3807, "Ġunc": 3808, "ĠRo": 3809, "rieved": 3810, "Ġasse": 3811, "bre": 3812, "Ġappears": 3813, "aint": 3814, "EC": 3815, "enty": 3816, "related": 3817, "Ġmachine": 3818, "Ġincreases": 3819, "cious": 3820, "Ġchoice": 3821, "ĠChe": 3822, "Ġillust": 3823, "ste": 3824, "Ġelement": 3825, "Ġlimit": 3826, "Ġemp": 3827, "ament": 3828, "AL": 3829, "26": 3830, "Ġcry": 3831, "Ġmouth": 3832, "Ġconstruct": 3833, "more": 3834, "ero": 3835, "ĠGreen": 3836, "Ġremember": 3837, "Ġillness": 3838, "Ġnames": 3839, "Ġmoving": 3840, "ĠCongress": 3841, "ara": 3842, "Ġpromot": 3843, "rab": 3844, "bl": 3845, "Ġriver": 3846, "Ġcities": 3847, "ĠMedic": 3848, "ĠEvery": 3849, "Ġproperties": 3850, "Ġmoment": 3851, "ĠSocial": 3852, "known": 3853, "Ġchanged": 3854, "Ġsigns": 3855, "Ġcapacity": 3856, "Ġworked": 3857, "Ġmig": 3858, "Ġevolution": 3859, "inated": 3860, "Ġstories": 3861, "ĠPhil": 3862, "Ġcompar": 3863, "Ġanx": 3864, "27": 3865, "Ġworth": 3866, "Ġpiece": 3867, "ĠHuman": 3868, "Ġassist": 3869, "Ġfemale": 3870, "Ġball": 3871, "ĠTH": 3872, "ĠSpec": 3873, "Ġeducational": 3874, "Ġinsect": 3875, "Ġguide": 3876, "gery": 3877, "Ġmut": 3878, "craft": 3879, "ĠToday": 3880, "29": 3881, "Ġsurvey": 3882, "iences": 3883, "Ġimmune": 3884, "ĠAng": 3885, "ev": 3886, "Ġtransfer": 3887, "Ġmission": 3888, "ĠFebruary": 3889, "Ġbaby": 3890, "force": 3891, "Ġstar": 3892, "rief": 3893, "lor": 3894, "Ġefficient": 3895, "ĠUN": 3896, "Ġexisting": 3897, "Ġstrugg": 3898, "aste": 3899, "ĠTur": 3900, "Ġfresh": 3901, "Ġfunctions": 3902, "Ġforward": 3903, "ĠMat": 3904, "Ġoffers": 3905, "Ġincor": 3906, "alt": 3907, "iring": 3908, "ĠAssociation": 3909, "can": 3910, "ĠEgypt": 3911, "Ġexpand": 3912, "Ġacad": 3913, "ĠMic": 3914, "iny": 3915, "ĠStudents": 3916, "asion": 3917, "uls": 3918, "Ġmilk": 3919, "Ġantib": 3920, "Ġarchitect": 3921, "ĠDavid": 3922, "ĠLat": 3923, "Ġdistance": 3924, "Ġequal": 3925, "Ġwid": 3926, "Ġ2000": 3927, "Ġdetect": 3928, "abilities": 3929, "pris": 3930, "resp": 3931, "rec": 3932, "Ġrat": 3933, "ĠVol": 3934, "Ġevalu": 3935, "Ġing": 3936, "Ġbra": 3937, "Ġdat": 3938, "Ġdirection": 3939, "amb": 3940, "Ġbreast": 3941, "Ġ#": 3942, "rupt": 3943, "Ġrepe": 3944, "Ġrunning": 3945, "aign": 3946, "ĠInternet": 3947, "Ġgiving": 3948, "Ġstaff": 3949, "Ġnative": 3950, "Ġcitizens": 3951, "âĢĿ,": 3952, "ĠJapanese": 3953, "Ġchallenges": 3954, "Ġvo": 3955, "Ġemissions": 3956, "ĠCouncil": 3957, "Ġ+": 3958, "Ġfindings": 3959, "Ġbelieved": 3960, "ĠArt": 3961, "Ġtissue": 3962, "Ġinstance": 3963, "Ġattract": 3964, "house": 3965, "Ġopportunities": 3966, "ĠColle": 3967, "omas": 3968, "Ġthousands": 3969, "Ġfactor": 3970, "Ġregions": 3971, "Ġconvers": 3972, "ĠUnion": 3973, "ĠAv": 3974, "ĠMor": 3975, "Ġinnov": 3976, "Ġprice": 3977, "Ġpp": 3978, "Ġassum": 3979, "Ġexplain": 3980, "cont": 3981, "Ġbound": 3982, "ession": 3983, "Ġreports": 3984, "rehens": 3985, "Ġoffice": 3986, "pective": 3987, "Ġune": 3988, "ĠLord": 3989, "Ġpicture": 3990, "Ġwrong": 3991, "Ġcomponents": 3992, "ĠDec": 3993, "ĠProgram": 3994, "Ġabsor": 3995, "Ġstim": 3996, "Ġhuge": 3997, "Ġdefined": 3998, "Ġweak": 3999, "ĠWestern": 4000, "ĠFrance": 4001, "Ġfriend": 4002, "ĠDes": 4003, "iox": 4004, "Ġmuscle": 4005, "Ġforeign": 4006, "Ġfigure": 4007, "Ġ2006": 4008, "Ġdisorder": 4009, "Ġdetails": 4010, "ĠMich": 4011, "Ġcontract": 4012, "28": 4013, "Ġbalance": 4014, "Ġlearned": 4015, "Ġtruth": 4016, "ĠOb": 4017, "ĠPal": 4018, "ĠFood": 4019, "Ġchance": 4020, "Ġtask": 4021, "Ġwatch": 4022, "Ġsuggests": 4023, "Ġgoals": 4024, "ographic": 4025, "ĠJames": 4026, "Ġinstruct": 4027, "Ġdestroy": 4028, "Ġqual": 4029, "Ġtechnologies": 4030, "70": 4031, "ifically": 4032, "ĠBu": 4033, "OS": 4034, "Ġresistance": 4035, "Ġmap": 4036, "Ġphen": 4037, "Ġexhib": 4038, "ĠDi": 4039, "Ġroot": 4040, "Ġoptions": 4041, "Ġstrategies": 4042, "Ġfert": 4043, "Ġseven": 4044, "Ġsac": 4045, "ees": 4046, "Ġseparate": 4047, "Ġfamous": 4048, "Ġvision": 4049, "ygen": 4050, "iance": 4051, "ĠUK": 4052, "Ġcarried": 4053, "iant": 4054, "ĠSub": 4055, "Ġpassed": 4056, "Ġplanning": 4057, "pped": 4058, "ĠBra": 4059, "Ġbox": 4060, "ĠBel": 4061, "Ġeventually": 4062, "Ġexperim": 4063, "Ġconsumption": 4064, "orage": 4065, "Ġimmediately": 4066, "oma": 4067, "Ġapply": 4068, "Ġ2015": 4069, "Ġeffic": 4070, "à¤": 4071, "Ġjournal": 4072, "Ġclassroom": 4073, "ss": 4074, "Ġexperiences": 4075, "bed": 4076, "Ġorganizations": 4077, "Ġhighest": 4078, "Ġdivid": 4079, "antic": 4080, "ĠWeb": 4081, "Ġstructures": 4082, "nes": 4083, "era": 4084, "Ġcand": 4085, "Ġstyle": 4086, "Ġbank": 4087, "hors": 4088, "Ġhair": 4089, "Ġobserved": 4090, "Ġsuppl": 4091, "Ġfix": 4092, "Ġutil": 4093, "Ġblue": 4094, "do": 4095, "tee": 4096, "ĠRetrieved": 4097, "ĠWork": 4098, "Ġurban": 4099, "Ġapproximately": 4100, "omic": 4101, "ĠFound": 4102, "ĠRem": 4103, "Ġgain": 4104, "Ġdyn": 4105, "II": 4106, "Ġplans": 4107, "Ġdecades": 4108, "Ġreference": 4109, "Ġfavor": 4110, "Ġboard": 4111, "Ġincome": 4112, "Ġretur": 4113, "Ġsexual": 4114, "igen": 4115, "Ġchallenge": 4116, "Ġcollabor": 4117, "Ġcelebr": 4118, "SA": 4119, "Ġ2005": 4120, "wards": 4121, "ĠMary": 4122, "Ġ29": 4123, "Ġtreated": 4124, "ET": 4125, "ube": 4126, "Ġgarden": 4127, "Ġsignificantly": 4128, "isation": 4129, "Ġmale": 4130, "Ġplastic": 4131, "Ġneu": 4132, "Ġdistribution": 4133, "Ġextremely": 4134, "DA": 4135, "Ġemphas": 4136, "Ġexcess": 4137, "Ġcommercial": 4138, "eces": 4139, "uing": 4140, "Ġpick": 4141, "Ġbodies": 4142, "Ġheavy": 4143, "ken": 4144, "ĠUsing": 4145, "Ġfaith": 4146, "Ġmoved": 4147, "Ġhappen": 4148, "Ġliqu": 4149, "ĠTherefore": 4150, "Ġgene": 4151, "Ġfeature": 4152, "Ġnutrition": 4153, "Ġspect": 4154, "Ġbecoming": 4155, "ĠTwo": 4156, "pan": 4157, "Ġdecisions": 4158, "zz": 4159, "Ġspring": 4160, "Ġpresented": 4161, "part": 4162, "change": 4163, "ĠGeorge": 4164, "Ġactual": 4165, "Ġnuclear": 4166, "Ġmal": 4167, "Ġgrass": 4168, "Ġsave": 4169, "ares": 4170, "Ġexplore": 4171, "Ġmo": 4172, "iding": 4173, "Ġpopulations": 4174, "Ġlegis": 4175, "Ġiniti": 4176, "che": 4177, "Ġrot": 4178, "Ġcontrast": 4179, "care": 4180, "Ġmer": 4181, "Ġitems": 4182, "ĠDevelopment": 4183, "Ġrequirements": 4184, "Ġconducted": 4185, "Ġhousehold": 4186, "Ġtopic": 4187, "Ġreality": 4188, "Ġparticipants": 4189, "EM": 4190, "Ġglass": 4191, "Ġdisorders": 4192, "ĠCollege": 4193, "Ġslight": 4194, "St": 4195, "urally": 4196, "ĠNet": 4197, "This": 4198, "ophy": 4199, "Ġresource": 4200, "Ġestimated": 4201, "ald": 4202, "ped": 4203, "ogle": 4204, "Ġaspects": 4205, "ky": 4206, "ologist": 4207, "ĠRev": 4208, "Ġopin": 4209, "Ġpresident": 4210, "ipe": 4211, "met": 4212, "Ġgeneration": 4213, "Wh": 4214, "Ġconnected": 4215, "Ġvary": 4216, "Ġiron": 4217, "Ġindustrial": 4218, "Ġletter": 4219, "Ġclinical": 4220, "Ġeasier": 4221, "Ġfrequently": 4222, "Ġparty": 4223, "Ġdiscussion": 4224, "plications": 4225, "Ġchronic": 4226, "Ġstream": 4227, "ĠGovernment": 4228, "ĠAir": 4229, "cast": 4230, "Ġtrust": 4231, "Ġalternative": 4232, "ulum": 4233, "ĠOrgan": 4234, "Ġintroduced": 4235, "rome": 4236, "urance": 4237, "order": 4238, "ĠNat": 4239, "Ġkid": 4240, "Ġmedicine": 4241, "Ġoperations": 4242, "Ġhomes": 4243, "Ġserve": 4244, "ĠSam": 4245, "aus": 4246, "Ġfig": 4247, "unction": 4248, "Ġbone": 4249, "rest": 4250, "Ġdesp": 4251, "ĠRepublic": 4252, "Ġsetting": 4253, "Ġtransl": 4254, "ulf": 4255, "clus": 4256, "Ġclearly": 4257, "Ġpartners": 4258, "ĠFurther": 4259, "Ġnotes": 4260, "Ġesc": 4261, "ĠMuseum": 4262, "Ġdepression": 4263, "Ġwidely": 4264, "Ġcompl": 4265, "Ġvitamin": 4266, "AM": 4267, "Ġrecords": 4268, "ĠSpanish": 4269, "roph": 4270, "ĠProject": 4271, "ĠOff": 4272, "ĠDem": 4273, "asks": 4274, "Ġgames": 4275, "35": 4276, "Ġelectricity": 4277, "Ġmetal": 4278, "Ġcombination": 4279, "ĠGreek": 4280, "co": 4281, "Ġstarting": 4282, "Ġbed": 4283, "ĠPhys": 4284, "mat": 4285, "Ġindependent": 4286, "Ġnovel": 4287, "ault": 4288, "erate": 4289, "rant": 4290, "Ġign": 4291, "ĠLike": 4292, "Ġturned": 4293, "Ġlived": 4294, "elines": 4295, "bal": 4296, "Ġves": 4297, "Ġbattle": 4298, "Ġpolicies": 4299, "Ġappe": 4300, "key": 4301, "porary": 4302, "Ġreleased": 4303, "enth": 4304, "Ġkilled": 4305, "Ġfields": 4306, "raw": 4307, "90": 4308, "Ġstore": 4309, "Ġrelease": 4310, "ĠMark": 4311, "Ġfreedom": 4312, "Ġfilm": 4313, "tered": 4314, "Ġ80": 4315, "ager": 4316, "char": 4317, "Ġ190": 4318, "ognitive": 4319, "Ġremove": 4320, "ĠEv": 4321, "ously": 4322, "Ġ2016": 4323, "Ġbuildings": 4324, "imens": 4325, "ĠNAS": 4326, "ida": 4327, "gal": 4328, "ingly": 4329, "ilit": 4330, "Ġintellig": 4331, "Ġagg": 4332, "Ġload": 4333, "Ġcausing": 4334, "Ġbottom": 4335, "Ġhom": 4336, "Ġocean": 4337, "Ġviolence": 4338, "Ġnumerous": 4339, "ĠTest": 4340, "Ġcycle": 4341, "ologists": 4342, "rog": 4343, "Ġ2014": 4344, "roup": 4345, "Ġanyone": 4346, "Ġsample": 4347, "Ġthr": 4348, "apers": 4349, "Ġnoted": 4350, "ructure": 4351, "ĠBen": 4352, "Ġrisks": 4353, "ĠAbout": 4354, "Ġdoub": 4355, "Ġlayer": 4356, "Ġrecommended": 4357, "ĠST": 4358, "Ġexpression": 4359, "Ġisol": 4360, "Ġoutput": 4361, "ĠIts": 4362, "Ġorganic": 4363, "Ġcovered": 4364, "Ġexperiment": 4365, "amental": 4366, "Ġconv": 4367, "Ġgets": 4368, "Ġresulting": 4369, "Ġoxygen": 4370, "Ġshap": 4371, "Ġperformed": 4372, "pre": 4373, "Ġconnection": 4374, "rosc": 4375, "Ġassessment": 4376, "Ġminor": 4377, "erved": 4378, "Ġliterature": 4379, "lick": 4380, "ĠWell": 4381, "Ġtemperatures": 4382, "ĠGra": 4383, "ĠBoth": 4384, "ĠPaul": 4385, "Ġprefer": 4386, "Ġchanging": 4387, "Ġgod": 4388, "Ġhear": 4389, "Ġship": 4390, "olved": 4391, "ĠFore": 4392, "Ġgraph": 4393, "tical": 4394, "works": 4395, "Ġready": 4396, "Ġinternal": 4397, "ĠRober": 4398, "hetic": 4399, "Ġvot": 4400, "Ġunivers": 4401, "Ġdrive": 4402, "Ġtour": 4403, "Ġflood": 4404, "Ġdegrees": 4405, "Ġtechnique": 4406, "osystem": 4407, "ĠMr": 4408, "erences": 4409, "Ġtrig": 4410, "ĠCourt": 4411, "Ġspeech": 4412, "ii": 4413, "othes": 4414, "icial": 4415, "Ġcharacteristics": 4416, "Ġcircum": 4417, "Ġmessage": 4418, "Ġcreation": 4419, "Ġrelationships": 4420, "ĠPost": 4421, "Ġcampaign": 4422, "Ġwhom": 4423, "Ġcollege": 4424, "Ġwanted": 4425, "ĠSom": 4426, "Ġbuy": 4427, "Ġinterpret": 4428, "Ġprepar": 4429, "ĠMet": 4430, "anging": 4431, "Ġfeeling": 4432, "Ġconfirm": 4433, "Ġdistinct": 4434, "Ġsand": 4435, "Ġmeeting": 4436, "ĠSecond": 4437, "Ġisland": 4438, "Ġnor": 4439, "RE": 4440, "Ġupper": 4441, "Ġpi": 4442, "Ġreferred": 4443, "ressive": 4444, "orial": 4445, "ĠBudd": 4446, "Ġfinding": 4447, "raction": 4448, "ĠCath": 4449, "ĠSy": 4450, "Ġencourage": 4451, "Ġsem": 4452, "mark": 4453, "Ġdangerous": 4454, "45": 4455, "ĠHen": 4456, "Ġphysic": 4457, "Ġprinciples": 4458, "ĠDef": 4459, "ĠHel": 4460, "Ġannual": 4461, "Ġanxiety": 4462, "Ġrul": 4463, "Ġ186": 4464, "ĠIsland": 4465, "ĠSun": 4466, "Ġunits": 4467, "essor": 4468, "Ġyouth": 4469, "ias": 4470, "Ġhelped": 4471, "Ġtrib": 4472, "Ġbeautiful": 4473, "Ġunf": 4474, "ĠScient": 4475, "Ġreprodu": 4476, "Ġinitial": 4477, "ĠJews": 4478, "Ġdrop": 4479, "Ġreligion": 4480, "Ġvul": 4481, "iveness": 4482, "ĠTreat": 4483, "ĠInf": 4484, "Ġemail": 4485, "Ġreducing": 4486, "Ġstorage": 4487, "Ġvolunt": 4488, "Ġpane": 4489, "Ġfine": 4490, "stitution": 4491, "ria": 4492, "Ch": 4493, "Ġtrou": 4494, "Ġcore": 4495, "Ġexactly": 4496, "Ġauthors": 4497, "respond": 4498, "Ġregarding": 4499, "Ġsav": 4500, "Ġhappens": 4501, "ĠRich": 4502, "Ġterrit": 4503, "Ġplease": 4504, "ĠBas": 4505, "Ġinvolves": 4506, "ĠMount": 4507, "ago": 4508, "netic": 4509, "Ġplat": 4510, "Ġdetermined": 4511, "Ġrace": 4512, "Ġsurgery": 4513, "ĠTex": 4514, "Ġupd": 4515, "ipal": 4516, "Ġsolutions": 4517, "ĠLa": 4518, "Ġradio": 4519, "Ġmathemat": 4520, "ĠNASA": 4521, "Ġserved": 4522, "Ġgrant": 4523, "ategy": 4524, "itz": 4525, "Ġclasses": 4526, "Ġpreviously": 4527, "Ġgenes": 4528, "Ġnorthern": 4529, "ception": 4530, "Ġconservation": 4531, "Ġmentioned": 4532, "Ġcounter": 4533, "ortunately": 4534, "olid": 4535, "Ġvessel": 4536, "onic": 4537, "rm": 4538, "78": 4539, "Ġbelong": 4540, "ulating": 4541, "Ġbackground": 4542, "Ġdescribe": 4543, "Ġexcell": 4544, "ĠMal": 4545, "ij": 4546, "Ġproperly": 4547, "lease": 4548, "PS": 4549, "Ġmostly": 4550, "Ġvictim": 4551, "atically": 4552, "Ġdri": 4553, "Ġstrategy": 4554, "umn": 4555, "Ġcast": 4556, "Ùİ": 4557, "Ġtooth": 4558, "ocal": 4559, "ishing": 4560, "ipl": 4561, "Ġremoved": 4562, "Ġgender": 4563, "Ġpredict": 4564, "edic": 4565, "Ġmeat": 4566, "Ġradiation": 4567, "ĠMars": 4568, "ctic": 4569, "Ġpromote": 4570, "Â°": 4571, "Ġinjury": 4572, "Ġtrend": 4573, "ĠSen": 4574, "Ġnine": 4575, "Ġstatement": 4576, "Ġoption": 4577, "Ġclick": 4578, "ieties": 4579, "ĠThomas": 4580, "Ġexperienced": 4581, "ander": 4582, "Ġinput": 4583, "uration": 4584, "Ġinvolve": 4585, "Ġarticles": 4586, "Ġtransform": 4587, "Ġleads": 4588, "Ġpric": 4589, "Ġscen": 4590, "Ġ70": 4591, "Ġcomprehens": 4592, "Ġ2017": 4593, "Ġadvanced": 4594, "Ġround": 4595, "ĠGet": 4596, "ĠLife": 4597, "Ġreplace": 4598, "ĠStep": 4599, "Ġfailure": 4600, "cers": 4601, "och": 4602, "Ġ2004": 4603, "Ġelimin": 4604, "Ġcris": 4605, "Ġadvantage": 4606, "Ġsquare": 4607, "Ġlandsc": 4608, "Ġmist": 4609, "riculum": 4610, "ta": 4611, "Ġeggs": 4612, "Ġheard": 4613, "bi": 4614, "ping": 4615, "riage": 4616, "Ġthick": 4617, "ĠBro": 4618, "right": 4619, "iverse": 4620, "inate": 4621, "Ġsolid": 4622, "Ġvolume": 4623, "ressed": 4624, "Ġdram": 4625, "rete": 4626, "ributed": 4627, "ST": 4628, "ĠWhite": 4629, "Ġreb": 4630, "Ġwest": 4631, "rum": 4632, "Ġarm": 4633, "Ġ90": 4634, "ĠPort": 4635, "ĠKore": 4636, "Ġinterested": 4637, "Ġrelevant": 4638, "Ġtum": 4639, "Ġdogs": 4640, "ĠJe": 4641, "Ġinflamm": 4642, "rane": 4643, "ĠClass": 4644, "rates": 4645, "33": 4646, "Ġinh": 4647, "Ġconflict": 4648, "ĠCivil": 4649, "rows": 4650, "ĠOld": 4651, "Ġexperts": 4652, "vision": 4653, "Ġobvious": 4654, "Ġkept": 4655, "Ġincorpor": 4656, "Ġsaying": 4657, "Ġdie": 4658, "Ġexposed": 4659, "Ġpal": 4660, "Ġspot": 4661, "ĠFre": 4662, "Ġlinked": 4663, "Ġcharge": 4664, "Ġinfections": 4665, "Ġdepending": 4666, "Ġpollution": 4667, "Ġalg": 4668, "Ġeffectively": 4669, "ĠDirect": 4670, "Ġadjust": 4671, "Ġdecided": 4672, "Ġmeant": 4673, "CC": 4674, "Ġspent": 4675, "Ġsouthern": 4676, "ĠHIV": 4677, "oyal": 4678, "Ġinstall": 4679, "Ġseed": 4680, "aughter": 4681, "ĠService": 4682, "Ġmagn": 4683, "ĠAsia": 4684, "ĠAcad": 4685, "Ġdiss": 4686, "Ġ2003": 4687, "Ġoperation": 4688, "Ġprepared": 4689, "Ġsort": 4690, "ĠIsl": 4691, "Ġinvent": 4692, "Ġcredit": 4693, "Ġconcerns": 4694, "ĠUp": 4695, "ĠCle": 4696, "ĠMart": 4697, "Ġprocessing": 4698, "ĠMexico": 4699, "ĠMedical": 4700, "ags": 4701, "Ġinstitutions": 4702, "Ġamounts": 4703, "Ġprofession": 4704, "Ġexpert": 4705, "Ġjour": 4706, "Ġphase": 4707, "anch": 4708, "uted": 4709, "Ġreaction": 4710, "Ġcere": 4711, "ĠMac": 4712, "Ġsignal": 4713, "Ġhelping": 4714, "Ġproposed": 4715, "Ġpages": 4716, "ĠSal": 4717, "Ġacademic": 4718, "Ġlic": 4719, "Ġdiscover": 4720, "Ġfrequency": 4721, "Ġofficial": 4722, "Ġfol": 4723, "ĠElect": 4724, "Ġhour": 4725, "Ġkill": 4726, "Ġdefinition": 4727, "Ġmanage": 4728, "Ġmanufacture": 4729, "Ġlib": 4730, "Ġimpl": 4731, "Ġclos": 4732, "Ġemotional": 4733, "za": 4734, "Ġcomfort": 4735, "Ġpret": 4736, "ĠJer": 4737, "urt": 4738, "ĠMake": 4739, "ams": 4740, "Ġconcern": 4741, "berg": 4742, "Ġvegetables": 4743, "ĠIr": 4744, "ifying": 4745, "Ġseeds": 4746, "Ġphenomen": 4747, "75": 4748, "Ġreached": 4749, "ĠSk": 4750, "Ġfarmers": 4751, "Ġowners": 4752, "Ġeast": 4753, "roke": 4754, "Ġatmosphere": 4755, "Ġpresc": 4756, "Ġcontinues": 4757, "ĠOp": 4758, "Ġaid": 4759, "Ġconclud": 4760, "Ġ35": 4761, "isher": 4762, "Ġmel": 4763, "Ġjoint": 4764, "ux": 4765, "Ġsupported": 4766, "nic": 4767, "ĠAny": 4768, "Ġcorrespond": 4769, "Ġlung": 4770, "ĠSer": 4771, "ĠEnergy": 4772, "Ġbrother": 4773, "Ġconcepts": 4774, "Ġpun": 4775, "Ġforced": 4776, "Ġyellow": 4777, "Ġsecret": 4778, "board": 4779, "Ġpieces": 4780, "ĠLearning": 4781, "place": 4782, "Ġmotion": 4783, "ĠVirgin": 4784, "Ġwealth": 4785, "Ġfinally": 4786, "ĠMa": 4787, "Ġmotor": 4788, "Ġsynt": 4789, "Ġsustainable": 4790, "Ġcoal": 4791, "Ġwet": 4792, "iling": 4793, "ĠDist": 4794, "akers": 4795, "tes": 4796, "ĠCentral": 4797, "Ġhorm": 4798, "pat": 4799, "Ġsong": 4800, "Ġconsult": 4801, "Ġrecorded": 4802, "Ġban": 4803, "Ġidentity": 4804, "ĠWomen": 4805, "wood": 4806, "acing": 4807, "ĠNews": 4808, "ĠInformation": 4809, "ĠAD": 4810, "Ġmanner": 4811, "AD": 4812, "Ġmainly": 4813, "Ġlooks": 4814, "well": 4815, "ded": 4816, "zing": 4817, "ndrome": 4818, "ĠMedicine": 4819, "standing": 4820, "Ġelectrical": 4821, "ĠSupp": 4822, "Ġawareness": 4823, "Ġprocedure": 4824, "Ġhop": 4825, "Ġremained": 4826, "Ġwaters": 4827, "36": 4828, "Ġintended": 4829, "ĠMiss": 4830, "ĠData": 4831, "ĠSpace": 4832, "Ġvulner": 4833, "Ġbegins": 4834, "Ġtim": 4835, "Ġcompleted": 4836, "ĠThrough": 4837, "yright": 4838, "astern": 4839, "Ġchemicals": 4840, "Ġengineering": 4841, "'ll": 4842, "Ġnotice": 4843, "Ġlanguages": 4844, "alle": 4845, "rence": 4846, "Ġindicate": 4847, "win": 4848, "Ġallowing": 4849, "Ġstation": 4850, "ĠBur": 4851, "Ġstorm": 4852, "Ġgrade": 4853, "Ġimproved": 4854, "Ġsufficient": 4855, "Ġdiagnosis": 4856, "enced": 4857, "ĠBay": 4858, "ĠTexas": 4859, "ĠArab": 4860, "Ġdatab": 4861, "comes": 4862, "rations": 4863, "oper": 4864, "Ġpurposes": 4865, "Ġtaught": 4866, "Ġsettle": 4867, "Ġsituations": 4868, "ĠBritain": 4869, "Ġdrinking": 4870, "ĠAddition": 4871, "Ġprofessor": 4872, "Ġhit": 4873, "ĠArmy": 4874, "ĠBer": 4875, "Ġtro": 4876, "ĠCam": 4877, "Ġwonder": 4878, "Ġessay": 4879, "ishes": 4880, "ormal": 4881, "Ġpractical": 4882, "ĠLou": 4883, "Ġmath": 4884, "Ġlov": 4885, "ĠÎ": 4886, "Ġnav": 4887, "rian": 4888, "ĠSat": 4889, "Ġmorning": 4890, "su": 4891, "Ġlesson": 4892, "ball": 4893, "Ġfoss": 4894, "Ġdefic": 4895, "Ġfluid": 4896, "arrow": 4897, "Ġformation": 4898, "ĠSuch": 4899, "Ġfort": 4900, "Ġoffered": 4901, "Ġcomment": 4902, "Ġreduction": 4903, "Ġ2001": 4904, "acific": 4905, "ĠDisc": 4906, "Ġtoxic": 4907, "aker": 4908, "Ġdro": 4909, "ĠAtl": 4910, "ears": 4911, "Ġrenew": 4912, "Ġconver": 4913, "EL": 4914, "ĠMil": 4915, "Ġauthority": 4916, "Ġplatform": 4917, "ĠHistor": 4918, "Ġextent": 4919, "Ġcoord": 4920, "Ġhearing": 4921, "uable": 4922, "vis": 4923, "Ġliquid": 4924, "ĠBat": 4925, "ĠFranc": 4926, "Ġshared": 4927, "Ġecosystem": 4928, "Ġmaster": 4929, "Ġkinds": 4930, "38": 4931, "ĠOut": 4932, "ework": 4933, "Ġraised": 4934, "oking": 4935, "osite": 4936, "Ġarmy": 4937, "ĠMass": 4938, "Ġfocused": 4939, "Ġgar": 4940, "ĠHol": 4941, "OT": 4942, "west": 4943, "ĠFe": 4944, "Ġcombined": 4945, "oo": 4946, "iat": 4947, "Ġcenturies": 4948, "ĠInstead": 4949, "Ġexistence": 4950, "Ġgirls": 4951, "Ġprimarily": 4952, "Ġhospital": 4953, "Ġlinks": 4954, "Ġtechnical": 4955, "Ġsamples": 4956, "Ġmotiv": 4957, "ĠÃ": 4958, "ĠRef": 4959, "ya": 4960, "itors": 4961, "ĠPlan": 4962, "Ġcollected": 4963, "Ġthoughts": 4964, "ĠStand": 4965, "Ġbrief": 4966, "Ġlargely": 4967, "Äģ": 4968, "leg": 4969, "ado": 4970, "Ġoccurred": 4971, "iated": 4972, "Ġleader": 4973, "clusion": 4974, "ounced": 4975, "ĠBook": 4976, "espite": 4977, "Ġgrand": 4978, "ĠTechnology": 4979, "Ġfacts": 4980, "Ġpark": 4981, "ht": 4982, "rier": 4983, "Ġconsequences": 4984, "Ġ1990": 4985, "Ġperman": 4986, "racy": 4987, "Ġideal": 4988, "Ġsnow": 4989, "AP": 4990, "Ġnit": 4991, "Ġwife": 4992, "ĠFam": 4993, "ensus": 4994, "Ġsalt": 4995, "Ġresponsibility": 4996, "Ġspecifically": 4997, "Ġsurpris": 4998, "Ġcertainly": 4999, "Ġtrial": 5000, "ĠWind": 5001, "Ġbond": 5002, "rapy": 5003, "unk": 5004, "ossible": 5005, "ixt": 5006, "Ġparticles": 5007, "Ġshar": 5008, "Ġcontribute": 5009, "lig": 5010, "ĠRights": 5011, "Ġblog": 5012, "Ġstraight": 5013, "ĠThose": 5014, "going": 5015, "Ġjobs": 5016, "acters": 5017, "ĠYet": 5018, "ĠQue": 5019, "Ġhttps": 5020, "osen": 5021, "Ġtreatments": 5022, "ĠMuslim": 5023, "Ġefficiency": 5024, "ĠCommission": 5025, "Ġflex": 5026, "Ġnutrients": 5027, "Ġdespite": 5028, "99": 5029, "Ġbud": 5030, "Ġstars": 5031, "Ġbright": 5032, "Ġadvance": 5033, "Ġvoice": 5034, "Ġfelt": 5035, "ĠKnow": 5036, "ĠRussian": 5037, "Ġpersons": 5038, "Ġ2002": 5039, "tion": 5040, "Ġvaccine": 5041, "rich": 5042, "ĠSou": 5043, "Ġresist": 5044, "Ġmuscles": 5045, "ĠCommon": 5046, "anges": 5047, "Ġagricultural": 5048, "ĠCop": 5049, "Ġabuse": 5050, "Ġexplains": 5051, "ĠLatin": 5052, "'ve": 5053, "ague": 5054, "Ġperspective": 5055, "eters": 5056, "otic": 5057, "Ġotherwise": 5058, "Ġpolice": 5059, "ĠBet": 5060, "ĠJose": 5061, "Ġmort": 5062, "Ġbird": 5063, "Ġcareer": 5064, "Ġastron": 5065, "Ġcert": 5066, "Ġsyn": 5067, "ael": 5068, "48": 5069, "Ġreturned": 5070, "olars": 5071, "Ġheight": 5072, "Ġsubjects": 5073, "ÃŃ": 5074, "ĠBefore": 5075, "Ġfib": 5076, "Ġexplan": 5077, "Ġhyper": 5078, "ĠCharles": 5079, "Ġ>": 5080, "Ġwel": 5081, "Ġdetailed": 5082, "verty": 5083, "ĠDise": 5084, "Ġexcellent": 5085, "oughly": 5086, "Ġfundamental": 5087, "Ġshowing": 5088, "band": 5089, "ĠTHE": 5090, "ĠWhere": 5091, "oviet": 5092, "RI": 5093, "ĠStudies": 5094, "Ġdoll": 5095, "Ġpoverty": 5096, "Ġcognitive": 5097, "field": 5098, "ĠSte": 5099, "Ġplaying": 5100, "Ġnations": 5101, "Ġfif": 5102, "Ġprotected": 5103, "Ġletters": 5104, "Ġkn": 5105, "Ġapparent": 5106, "olute": 5107, "Ġrefers": 5108, "Ġtrain": 5109, "Ġadvice": 5110, "Ġbiological": 5111, "Ġspend": 5112, "ras": 5113, "Ġquar": 5114, "ĠSum": 5115, "Ġincreasingly": 5116, "ĠDel": 5117, "ĠExpl": 5118, "ĠKen": 5119, "Ġsend": 5120, "Ġfaster": 5121, "Ġsuggested": 5122, "ĠExam": 5123, "ĠClin": 5124, "Ġtasks": 5125, "Ġhabitat": 5126, "ĠLand": 5127, "ville": 5128, "Ġvast": 5129, "Ġinterests": 5130, "Ġgreatest": 5131, "Ã¡": 5132, "Ġmaximum": 5133, "Ġsin": 5134, "ĠAN": 5135, "Ġprint": 5136, "Ġsector": 5137, "Ġvital": 5138, "ĠBC": 5139, "Ġsche": 5140, "Ġmeasured": 5141, "Ġkeeping": 5142, "Ġsurrounding": 5143, "ses": 5144, "ested": 5145, "Ġmere": 5146, "utive": 5147, "des": 5148, "Ġpros": 5149, "Ġclaims": 5150, "Ġpul": 5151, "Ġoperating": 5152, "Ġprison": 5153, "ĠMem": 5154, "col": 5155, "Ġbill": 5156, "gl": 5157, "Ġgovernments": 5158, "Ġimpacts": 5159, "ĠRobert": 5160, "ĠWhe": 5161, "Ġ2018": 5162, "RO": 5163, "ĠBible": 5164, "Ġaffects": 5165, "ĠCD": 5166, "Ġonto": 5167, "Ġrevolution": 5168, "Ġneut": 5169, "Ġstone": 5170, "ĠFoundation": 5171, "Ġneighbor": 5172, "ĠEconom": 5173, "othing": 5174, "ĠEnvironmental": 5175, "Ġrecy": 5176, "Ġrecognized": 5177, "ĠNor": 5178, "Ġdivided": 5179, "Ġhappened": 5180, "ĠDespite": 5181, "Ġattacks": 5182, "Ġfamiliar": 5183, "Ġroll": 5184, "Ġflowers": 5185, "ĠLake": 5186, "Ġdomestic": 5187, "Ġsounds": 5188, "Ġthin": 5189, "Ġemergency": 5190, "ĠFlor": 5191, "Ġflat": 5192, "omin": 5193, "gra": 5194, "iced": 5195, "Ġmetab": 5196, "inent": 5197, "Ġlooked": 5198, "resents": 5199, "Ġcharacters": 5200, "Ġrural": 5201, "hips": 5202, "inger": 5203, "Ġoral": 5204, "Ġow": 5205, "stood": 5206, "Ġimmig": 5207, "ipped": 5208, "Ġtypical": 5209, "Ġdouble": 5210, "100": 5211, "Ġkm": 5212, "roc": 5213, "Ġofficials": 5214, "enses": 5215, "Ġminimum": 5216, "Ġpray": 5217, "Ġnerv": 5218, "ĠJud": 5219, "ĠWild": 5220, "Ġstudied": 5221, "rastructure": 5222, "Ġclim": 5223, "Ġlik": 5224, "Ġplayed": 5225, "Ġinstrument": 5226, "itage": 5227, "Ġhundreds": 5228, "ĠFederal": 5229, "ĠGood": 5230, "Ġhelpful": 5231, "ancing": 5232, "Ġvehicle": 5233, "Ġfirm": 5234, "Ġchief": 5235, "Ġpotentially": 5236, "Ġcontrolled": 5237, "rolog": 5238, "asure": 5239, "Ġhaz": 5240, "lar": 5241, "ĠId": 5242, "ĠTem": 5243, "ĠPsych": 5244, "umin": 5245, "Ġapproaches": 5246, "Ġcomponent": 5247, "Ġsen": 5248, "Ġappeared": 5249, "].": 5250, "Ġmonitoring": 5251, "Ġfollows": 5252, "ĠHenry": 5253, "Ġspiritual": 5254, "Ġslightly": 5255, "ĠNote": 5256, "ails": 5257, "Ġconsists": 5258, "Ġexplained": 5259, "Ġproport": 5260, "Ġsatis": 5261, "Ġmoist": 5262, "ĠGoogle": 5263, "ĠSmith": 5264, "igenous": 5265, "cript": 5266, "ĠPlease": 5267, "Ġexternal": 5268, "nam": 5269, "Ġaren": 5270, "Ġvalid": 5271, "van": 5272, "Ġrein": 5273, "Ġliver": 5274, "Ġbow": 5275, "Ġstem": 5276, "Ġinstruction": 5277, "icted": 5278, "Ġperiods": 5279, "Ġfiles": 5280, "atever": 5281, "Ġlose": 5282, "ĠMont": 5283, "ĠCatholic": 5284, "Ġvent": 5285, "Ġsubstant": 5286, "ĠRussia": 5287, "Ġfle": 5288, "Ġdepth": 5289, "Ġrepresents": 5290, "Ġknew": 5291, "Ġgoods": 5292, "Ġkil": 5293, "ĠHam": 5294, "itness": 5295, "ulin": 5296, "Ġaccurate": 5297, "iled": 5298, "Ġfacilities": 5299, "Ġtopics": 5300, "tr": 5301, "ĠPacific": 5302, "ĠSoviet": 5303, "Ġchan": 5304, "Ġrand": 5305, "Ġwalls": 5306, "?âĢĿ": 5307, "name": 5308, "Ġcontaining": 5309, "Ġtitle": 5310, "ĠLibrary": 5311, "Ġclosely": 5312, "Ġvisible": 5313, "Ġfloor": 5314, "Ġ45": 5315, "Ġconcerned": 5316, "zy": 5317, "li": 5318, "Ġproteins": 5319, "oral": 5320, "Ġdisapp": 5321, "ellect": 5322, "Ġsed": 5323, "celer": 5324, "Ġtested": 5325, "Ġmoral": 5326, "Ġcontinuous": 5327, "Ġwestern": 5328, "ĠOnly": 5329, "Ġcrops": 5330, "ĠSea": 5331, "which": 5332, "Ġrandom": 5333, "Ġju": 5334, "Ġfeelings": 5335, "Ġrapidly": 5336, "eria": 5337, "mp": 5338, "Ġsubsequ": 5339, "Ġages": 5340, "Ġdepends": 5341, "fl": 5342, "Ġassign": 5343, "BC": 5344, "Ġsuffering": 5345, "Ġcrucial": 5346, "34": 5347, "ĠNature": 5348, "Ġportion": 5349, "Ġconcentration": 5350, "Ġtried": 5351, "Ġdirector": 5352, "ĠMiddle": 5353, "Ġreform": 5354, "ING": 5355, "Ġstated": 5356, "Ġpaint": 5357, "Ġprices": 5358, "95": 5359, "active": 5360, "Ġdiscovery": 5361, "istan": 5362, "Ġinvestment": 5363, "ION": 5364, "mic": 5365, "alse": 5366, "ĠSl": 5367, "Ġdiam": 5368, "ĠEmp": 5369, "ĠIN": 5370, "Ġcontem": 5371, "Ġcrisis": 5372, "gment": 5373, "Ġargument": 5374, "Ġimmun": 5375, "Ġcoin": 5376, "Ġconvent": 5377, "Ġinterview": 5378, "Ġcouple": 5379, "ĠPub": 5380, "Ġspl": 5381, "US": 5382, "Ġfruits": 5383, "ĠMag": 5384, "Ġcurriculum": 5385, "ĠBre": 5386, "Ġnaturally": 5387, "Ġdiversity": 5388, "Ġprocedures": 5389, "osa": 5390, "ĠWil": 5391, "Ġpaid": 5392, "state": 5393, "Ġviews": 5394, "ificial": 5395, "ĠSaf": 5396, "Ġresidents": 5397, "ĠControl": 5398, "Ġalt": 5399, "Ġdiscussed": 5400, "Ġ2020": 5401, "what": 5402, "Ġelev": 5403, "Ġsubstance": 5404, "Ġdiscrim": 5405, "Ġemployees": 5406, "Ġselected": 5407, "Ġjustice": 5408, "ĠProv": 5409, "inding": 5410, "Ġdu": 5411, "anes": 5412, "Ġroots": 5413, "Ġcircumst": 5414, "Ġleaving": 5415, "ĠCompany": 5416, "Ġcardi": 5417, "Ġrail": 5418, "TM": 5419, "ĠNav": 5420, "Ġoutcomes": 5421, "Ġstret": 5422, "Ġaccompl": 5423, "Ġsides": 5424, "ĠPhot": 5425, "Ġmedium": 5426, "Ġharvest": 5427, "ĠAp": 5428, "Ġmovements": 5429, "aks": 5430, "Ġdistingu": 5431, "Ġtherm": 5432, "37": 5433, "ĠLong": 5434, "Ġ188": 5435, "ocracy": 5436, "Ġmedications": 5437, "ĠProfessor": 5438, "chers": 5439, "Ġgrown": 5440, "ĠVis": 5441, "ĠReview": 5442, "Ġarms": 5443, "Ġsmart": 5444, "Ġvillage": 5445, "ĠTor": 5446, "Ġsets": 5447, "Ġweap": 5448, "hi": 5449, "Ġpurs": 5450, "ĠPers": 5451, "Ġconscious": 5452, "ĠPower": 5453, "Ġallerg": 5454, "ĠOx": 5455, "Ġtips": 5456, "Ġpu": 5457, "ĠGroup": 5458, "Ġlatest": 5459, "Ġpump": 5460, "ocratic": 5461, "ĠFact": 5462, "down": 5463, "ĠEngine": 5464, "ĠHave": 5465, "Ġdeliver": 5466, "ĠArtic": 5467, "Ġmarine": 5468, "Ġdocuments": 5469, "ascular": 5470, "Ġobtained": 5471, "abil": 5472, "Ġphone": 5473, "CO": 5474, "Ġod": 5475, "Ġadvoc": 5476, "Ġdut": 5477, "ĠAdd": 5478, "Ġadding": 5479, "Ġ2019": 5480, "ĠTer": 5481, "Ġband": 5482, "Ġhunt": 5483, "ĠFinally": 5484, "umber": 5485, "Ġcorpor": 5486, "Ġpil": 5487, "39": 5488, "Ġpictures": 5489, "ĠWho": 5490, "Ġfr": 5491, "ĠDiv": 5492, "ye": 5493, "ari": 5494, "Ġrecognize": 5495, "ĠKeep": 5496, "tenance": 5497, "icks": 5498, "ĠLast": 5499, "Ġvaluable": 5500, "ga": 5501, "Ġparties": 5502, "ĠAnn": 5503, "Ġmillions": 5504, "Ġhorse": 5505, "ĠManagement": 5506, "Ġpig": 5507, "ooth": 5508, "Ġdial": 5509, "ĠConstitution": 5510, "Ġnarrow": 5511, "Ġfrag": 5512, "ĠHome": 5513, "Ġexpensive": 5514, "ĠColumb": 5515, "Ġcapable": 5516, "Ġingred": 5517, "ĠVirginia": 5518, "ario": 5519, "Ġextract": 5520, "Ġdream": 5521, "Ġcolors": 5522, "Ġlaun": 5523, "inf": 5524, "ĠTime": 5525, "Ġsatell": 5526, "Ġapart": 5527, "with": 5528, "Ġdeaths": 5529, "Ġsoldiers": 5530, "Ġtalking": 5531, "BN": 5532, "65": 5533, "ĠFollow": 5534, "dden": 5535, "ato": 5536, "Ġdecrease": 5537, "mas": 5538, "Ġlessons": 5539, "ĠFigure": 5540, ".;": 5541, "44": 5542, "hma": 5543, "Ġdigest": 5544, "lers": 5545, "Ġexchange": 5546, "âĢĻ.": 5547, "Ġfertil": 5548, "Ġwire": 5549, "Ġfunding": 5550, "uke": 5551, "Ġregularly": 5552, "Ġpregnancy": 5553, "ĠLouis": 5554, "athy": 5555, "TS": 5556, "Ġinches": 5557, "ilding": 5558, "Ġparam": 5559, "ĠGlobal": 5560, "32": 5561, "ota": 5562, "ĠRad": 5563, "Ġformat": 5564, "ĠAtt": 5565, "burg": 5566, "Ġoriginally": 5567, "Ġinternet": 5568, "ĠAlex": 5569, "Ġclosed": 5570, "ĠCommit": 5571, "Ġtouch": 5572, "ĠCanadian": 5573, "bing": 5574, "Ġformal": 5575, "Ġagriculture": 5576, "Ġpure": 5577, "Ġsuffer": 5578, "DF": 5579, "Ġinfrastructure": 5580, "uses": 5581, "ĠMicro": 5582, "fall": 5583, "Ġsecure": 5584, "Ġrecovery": 5585, "Ġimpossible": 5586, "ĠStat": 5587, "Ġprinciple": 5588, "ĠAC": 5589, "Ġopinion": 5590, "Ġappearance": 5591, "Ġprevention": 5592, "kin": 5593, "Ġancest": 5594, "MS": 5595, "Ġmoon": 5596, "ffee": 5597, "Ġdescribes": 5598, "Ġregional": 5599, "olf": 5600, "oster": 5601, "olester": 5602, "ĠThough": 5603, "Ġincl": 5604, "Ġwave": 5605, "Ġcomputers": 5606, "Ġhouses": 5607, "anguage": 5608, "Ġcandid": 5609, "ĠWrit": 5610, "Ġdriving": 5611, "olve": 5612, "Ġstock": 5613, "ibilities": 5614, "ĠCarol": 5615, "ĠDet": 5616, "aser": 5617, "Ġchapter": 5618, "Ġopened": 5619, "idden": 5620, "Ġsudden": 5621, "ĠØ": 5622, "Ġraise": 5623, "Ġmamm": 5624, "ĠOffice": 5625, "Ġassemb": 5626, "Ġflight": 5627, "tage": 5628, "ĠIre": 5629, "Ġprecise": 5630, "agues": 5631, "Ġintroduction": 5632, "Ġ31": 5633, "Ġrestrict": 5634, "pass": 5635, "Ġsick": 5636, "long": 5637, "Ġrecon": 5638, "Ġaccepted": 5639, "Ġtrad": 5640, "Ġshel": 5641, "Ġcalls": 5642, "cling": 5643, "Ġleadership": 5644, "ĠTake": 5645, "vironments": 5646, "Ġnormally": 5647, "Ġvehicles": 5648, "Ġmyth": 5649, "alysis": 5650, "Ġlibrary": 5651, "Ġpossibly": 5652, "Ġintake": 5653, "ĠPC": 5654, "osc": 5655, "Ġinterf": 5656, "Ġfacilit": 5657, "Ġmit": 5658, "obe": 5659, "Ġcreative": 5660, "agers": 5661, "Ġinfected": 5662, "Ġgun": 5663, "Ġdepos": 5664, "Ġble": 5665, "Ġ1999": 5666, "Ġpush": 5667, "Ġ185": 5668, "Ġera": 5669, "pping": 5670, "ĠGold": 5671, "road": 5672, "indu": 5673, "Ġunderstood": 5674, "olesterol": 5675, "Ġprepare": 5676, "Ġnan": 5677, "ston": 5678, "Ġaw": 5679, "ĠJoseph": 5680, "inations": 5681, "Ġintelligence": 5682, "free": 5683, "Ġbusinesses": 5684, "Ġrevealed": 5685, "Ġphr": 5686, "Ġadequ": 5687, "Ġlifest": 5688, "Ġabsolute": 5689, "500": 5690, "add": 5691, "Ġenhance": 5692, "Ġapprec": 5693, "Ġagencies": 5694, "ny": 5695, "Ġadministration": 5696, "Ġtroops": 5697, "ĠLabor": 5698, "Ġunlike": 5699, "Ġnetworks": 5700, "plicated": 5701, "Ġpossibility": 5702, "Ġpref": 5703, "rants": 5704, "othe": 5705, "Ġmarriage": 5706, "Ġsuc": 5707, "asive": 5708, "liam": 5709, "anda": 5710, "Ġinflammation": 5711, "alian": 5712, "ĠFlorida": 5713, "Ġproducing": 5714, "Ġsyndrome": 5715, "Ġuniverse": 5716, "Ġmuseum": 5717, "Ġsensitive": 5718, "Ġlabel": 5719, "Ġentirely": 5720, "Ġbones": 5721, "Ġwear": 5722, "stream": 5723, "ifies": 5724, "Ġadopted": 5725, "Ġstored": 5726, "ĠEarly": 5727, "Ġmobile": 5728, "Ġwaves": 5729, "isp": 5730, "Ġbrown": 5731, "Ġmassive": 5732, "Ġtoler": 5733, "Ġcomprehensive": 5734, "Ġtow": 5735, "esity": 5736, "ĠExper": 5737, "Ġlatter": 5738, ".|": 5739, "Ġgenerate": 5740, "198": 5741, "ĠNatural": 5742, "Ġlisted": 5743, "Ġwww": 5744, "Ġpretty": 5745, "Ġpossess": 5746, "Ġimproving": 5747, "ypes": 5748, "ĠIll": 5749, "Ġguidelines": 5750, "Ġantibiot": 5751, "Ġtal": 5752, "ĠSym": 5753, "omach": 5754, "Ġprotocol": 5755, "bert": 5756, "Ġconsid": 5757, "Ġwarming": 5758, "Ġfill": 5759, "Ġassistance": 5760, "ĠCult": 5761, "Ġsecondary": 5762, "king": 5763, "ĠPeter": 5764, "76": 5765, "Ġvolunte": 5766, "Ġwindow": 5767, "Ġfigures": 5768, "teries": 5769, "Ġacts": 5770, "ĠLearn": 5771, "unic": 5772, "Ġpoet": 5773, "ml": 5774, "Ġworldwide": 5775, "Ġworse": 5776, "Ġ1980": 5777, "hist": 5778, "Ġaccounts": 5779, "Ġspeaking": 5780, "Ġlandscape": 5781, "oted": 5782, "ĠMo": 5783, "Ġdoctors": 5784, "Ġabund": 5785, "ropical": 5786, "31": 5787, "Ġstick": 5788, "ĠExp": 5789, "Ġwildlife": 5790, "Ġforests": 5791, "Ġrepeated": 5792, "Ġscholars": 5793, "ĠNations": 5794, "Ġunless": 5795, "Ġextensive": 5796, "ĠStudy": 5797, "46": 5798, "Ġburn": 5799, "Ġplate": 5800, "Ġintellect": 5801, "Ġlands": 5802, "Ġminim": 5803, "Ġdiverse": 5804, "Ġframework": 5805, "roid": 5806, "Ġrub": 5807, "Ġcloud": 5808, "ĠAustralian": 5809, "hemical": 5810, "Ġfell": 5811, "Ġaircraft": 5812, "Ġtail": 5813, "Ġdust": 5814, "erals": 5815, "LE": 5816, "Ġwors": 5817, "Ġtraffic": 5818, "rors": 5819, "Ġsan": 5820, "Ġindeed": 5821, "Ġcars": 5822, "ĠExt": 5823, "Ġnurs": 5824, "prise": 5825, "Ġtwice": 5826, "ĠDan": 5827, "osph": 5828, "Ġachieved": 5829, "pected": 5830, "osal": 5831, "Ġgall": 5832, "Ġstages": 5833, "Ġchart": 5834, "ĠRome": 5835, "Ġnarr": 5836, "Ġindex": 5837, "ĠIreland": 5838, "orrow": 5839, "pet": 5840, "Ġanswers": 5841, "ini": 5842, "Ġstarts": 5843, "itan": 5844, "ĠAmong": 5845, "Ġinsects": 5846, "reed": 5847, "lements": 5848, "Ġsurvive": 5849, "Ġmanufacturing": 5850, "ĠCare": 5851, "Ġcreates": 5852, "orter": 5853, "Ġmedication": 5854, "Ġdecline": 5855, "Ġedge": 5856, "gent": 5857, "Ġbudget": 5858, "Ġsuitable": 5859, "Ġselection": 5860, "Ġagreement": 5861, "liament": 5862, "iology": 5863, "Ġsurf": 5864, "Ġenvironments": 5865, "Ġperce": 5866, "Ġimper": 5867, "Ġfoundation": 5868, "Ġexpressed": 5869, "ĠSometimes": 5870, "Ġexperiments": 5871, "orith": 5872, "Ġbehaviour": 5873, "spec": 5874, "abric": 5875, "aria": 5876, "Ġreject": 5877, "Ġacceler": 5878, "Ġsurvival": 5879, "Ġdatabase": 5880, "Ġengage": 5881, "ĠLab": 5882, "ĠDiff": 5883, "asp": 5884, "Ġshell": 5885, "apping": 5886, "Ġroutine": 5887, "Ġfilled": 5888, "ĠVict": 5889, "ada": 5890, "Ġchain": 5891, "Ġremote": 5892, "Ġerror": 5893, "âĢľ": 5894, "Ġelectronic": 5895, "Ġgather": 5896, "being": 5897, "Ġremaining": 5898, "Ġimplementation": 5899, "Ġequival": 5900, "Ġtiny": 5901, "Ġaqu": 5902, "Ġconstitution": 5903, "Ġdedic": 5904, "ache": 5905, "ava": 5906, "imer": 5907, "Ġmanaged": 5908, "Ġfailed": 5909, "Ġtransmission": 5910, "Ġreaders": 5911, "Ġsweet": 5912, "Ġ1998": 5913, "Ġslowly": 5914, "Ġgrav": 5915, "Ġcircumstances": 5916, "Ġsell": 5917, "Ġhappy": 5918, "Ġinjuries": 5919, "Ġdecade": 5920, "Ġsky": 5921, "Ġharmful": 5922, "ua": 5923, "Ġpull": 5924, "anged": 5925, "ĠChic": 5926, "ĠHall": 5927, "iform": 5928, "ĠCancer": 5929, "ĠReport": 5930, "ĠGal": 5931, "ansion": 5932, "Ġhealthcare": 5933, "Ġinject": 5934, "Ġfly": 5935, "Ġcopy": 5936, "igation": 5937, "Ġextended": 5938, "ioxide": 5939, "Ġcourses": 5940, "HO": 5941, "RC": 5942, "Ġ300": 5943, "ĠSouthern": 5944, "Ġcatch": 5945, "abits": 5946, "Ġleaf": 5947, "ĠMad": 5948, "Ġproduces": 5949, "Ġderived": 5950, "ĠAS": 5951, "Ġamb": 5952, "Ġ500": 5953, "Ġchoices": 5954, "Ġgenerated": 5955, "Ġmaintenance": 5956, "Ġfossil": 5957, "ĠDesign": 5958, "eper": 5959, "Ġafford": 5960, "Ġmur": 5961, "Ġhus": 5962, "Ġprem": 5963, "zen": 5964, "Ġnewsp": 5965, "ona": 5966, "ĠClick": 5967, "la": 5968, "Ġsteel": 5969, "inder": 5970, "Ġconsistent": 5971, "itc": 5972, "Ġobtain": 5973, "ĠCamp": 5974, "rid": 5975, "Ġcultiv": 5976, "ĠFree": 5977, "Ġbroken": 5978, "ogue": 5979, "war": 5980, "Ġlaboratory": 5981, "Ġtruly": 5982, "ĠOF": 5983, "zil": 5984, "Ġdistrict": 5985, "Ġphotos": 5986, "ĠEth": 5987, "Ġorganized": 5988, "Ġbear": 5989, "ĠConst": 5990, "Ġstruggle": 5991, "last": 5992, "ĠForm": 5993, "mia": 5994, "Ġsports": 5995, "Ġplays": 5996, "flow": 5997, "normal": 5998, "Ġthor": 5999, "Ġdomin": 6000, "Ġunknown": 6001, "Ġdrain": 6002, "mary": 6003, "Ġrepresented": 6004, "ĠCommittee": 6005, "ashion": 6006, "Ġmountain": 6007, "ĠSol": 6008, "Ġseeing": 6009, "ĠAI": 6010, "ĠCre": 6011, "Ġdoor": 6012, "ĠISBN": 6013, "Ġdoubt": 6014, "inction": 6015, "ita": 6016, "ĠRob": 6017, "Ġtransition": 6018, "Ġdecide": 6019, "Ġdaughter": 6020, "anta": 6021, "ĠBrown": 6022, "Ġ189": 6023, "Ġbattery": 6024, "rin": 6025, "Ġsignals": 6026, "ĠCat": 6027, "luding": 6028, "If": 6029, "Ġwish": 6030, "Ġdental": 6031, "Ġsupplement": 6032, "Ġjourney": 6033, "organ": 6034, "Ġgal": 6035, "Ġsentence": 6036, "Ġelectron": 6037, "Ġfixed": 6038, "Ġuns": 6039, "Ġdestroyed": 6040, "ĠUSA": 6041, "ribed": 6042, "77": 6043, "Ġprofessionals": 6044, "Ġwants": 6045, "Ġdifficulty": 6046, "ĠKh": 6047, "itative": 6048, "Ġ1970": 6049, "ĠDig": 6050, "Ġgreatly": 6051, "Ġath": 6052, "Ġsight": 6053, "Ġflav": 6054, "rine": 6055, "ĠCheck": 6056, "Ġpermanent": 6057, "Ġinner": 6058, "Ġlots": 6059, "ka": 6060, "ĠNorthern": 6061, "Ġtells": 6062, "ĠRichard": 6063, "Ġopposite": 6064, "arant": 6065, "Ġagency": 6066, "Ġships": 6067, "born": 6068, "ĠEnd": 6069, "Ġmulti": 6070, "Ġindicates": 6071, "Ġlocations": 6072, "Ġdesire": 6073, "Ġcos": 6074, "Ġsolve": 6075, "ola": 6076, "Ġenable": 6077, "49": 6078, "word": 6079, "icians": 6080, "Ġbeneficial": 6081, "no": 6082, "Ġinstitution": 6083, "Ġstomach": 6084, "ĠPract": 6085, "Ġsharing": 6086, "ĠFrank": 6087, "Ġaf": 6088, "itt": 6089, "Ġmarked": 6090, "Ġopening": 6091, "ctive": 6092, "Ġcorn": 6093, "ĠClimate": 6094, "Ġimmediate": 6095, "ĠTop": 6096, "Ġmechanism": 6097, "tering": 6098, "Ġtraum": 6099, "Ġfalse": 6100, "ĠMill": 6101, "Ġaudience": 6102, "Ġparalle": 6103, ".âĢĻ": 6104, "Ġshift": 6105, "ums": 6106, "Ġunable": 6107, "Ġyounger": 6108, "Ġchildhood": 6109, "ĠMichael": 6110, "Ġcolleagues": 6111, "Ġpurchase": 6112, "Ġobst": 6113, "Ġax": 6114, "Ġconsumers": 6115, "Ġauthorities": 6116, "ĠAst": 6117, "Ġoutl": 6118, "Ġsuccessfully": 6119, "ca": 6120, "Ġcomposition": 6121, "Ġskill": 6122, "Ġacids": 6123, "sey": 6124, "ĠParis": 6125, "Ġfewer": 6126, "Americ": 6127, "Ġresponses": 6128, "Ã¼": 6129, "ivery": 6130, "Ġdensity": 6131, "ĠCreat": 6132, "Ġstanding": 6133, "Ġfounded": 6134, "Ġdin": 6135, "Ġstudying": 6136, "ĠHaw": 6137, "Ġdescription": 6138, "Ġdioxide": 6139, "lets": 6140, "Ġemotions": 6141, "Ġcircuit": 6142, "Ġsequence": 6143, "ĠItaly": 6144, "Ġcalcium": 6145, "gu": 6146, "Ġcritic": 6147, "Ġreplaced": 6148, "sts": 6149, "Ġcholesterol": 6150, "Ġethnic": 6151, "Ġcarefully": 6152, "Ġcultures": 6153, "ĠColor": 6154, "ĠStreet": 6155, "ĠDoes": 6156, "Ġarrived": 6157, "Ġstroke": 6158, "cel": 6159, "Ġfiber": 6160, "Ġmarried": 6161, "ĠCap": 6162, "Ġalle": 6163, "phone": 6164, "inking": 6165, "body": 6166, "ĠSpain": 6167, "ĠDisease": 6168, "ifications": 6169, "Ġsusp": 6170, "Ġmolecules": 6171, "ĠAcademy": 6172, "Ġvote": 6173, "Ġcolour": 6174, "Ġalgorith": 6175, "Ġcoffee": 6176, "Ġphilosophy": 6177, "teen": 6178, "Ġsubs": 6179, "47": 6180, "Ġphotograph": 6181, "stein": 6182, "Ġsupplies": 6183, "throp": 6184, "Ġsod": 6185, "ĠIP": 6186, "Ġregulations": 6187, "Ġconcrete": 6188, "stone": 6189, "Ġgone": 6190, "ĠUnf": 6191, "Ġinsurance": 6192, "kes": 6193, "Ġrefuge": 6194, "Ġsupports": 6195, "ipping": 6196, "05": 6197, "Ġfasc": 6198, "oned": 6199, "bridge": 6200, "ĠFort": 6201, "Ġshut": 6202, "Ġremark": 6203, "Ġinteraction": 6204, "Ġhandle": 6205, "Ġlimits": 6206, "Ġultimately": 6207, "esis": 6208, "Ġaer": 6209, "ĠCurrent": 6210, "ĠBul": 6211, "Ġzone": 6212, "Ġattend": 6213, "ena": 6214, "Ġraw": 6215, "áĥ": 6216, "Ġthousand": 6217, "ait": 6218, "ĠStr": 6219, "Ġfunds": 6220, "kins": 6221, "Ġcutting": 6222, "IL": 6223, "ki": 6224, "Ġcloser": 6225, "Ġsimpl": 6226, "________": 6227, "elled": 6228, "Ġattached": 6229, "level": 6230, "Ġcomments": 6231, "inn": 6232, "Ġoccasion": 6233, "antly": 6234, "Ġaccum": 6235, "Ġsupporting": 6236, "Ġpowers": 6237, "CS": 6238, "Ġbehaviors": 6239, "clop": 6240, "Ġenemy": 6241, "Ġboost": 6242, "ĠList": 6243, "erent": 6244, "ĠWood": 6245, "Ġoptim": 6246, "ĠBoard": 6247, "hand": 6248, "gans": 6249, "ĠAdminist": 6250, "Ġourselves": 6251, "iration": 6252, "irty": 6253, "ocy": 6254, "Ġoverl": 6255, "rating": 6256, "Ġstands": 6257, "Ġevaluation": 6258, "isters": 6259, "ĠQuest": 6260, "ĠEss": 6261, "Ġroof": 6262, "ĠIII": 6263, "heast": 6264, "fe": 6265, "Ġintervention": 6266, "Ġchosen": 6267, "Ġends": 6268, "Ġpra": 6269, "Ġlifestyle": 6270, "Ġdedicated": 6271, "inter": 6272, "ĠSign": 6273, "Ġamaz": 6274, "Ġwitness": 6275, "abul": 6276, "Ġwalking": 6277, "Ġunus": 6278, "Ġmagnetic": 6279, "under": 6280, "ĠPenn": 6281, "Ġreader": 6282, "Ġeld": 6283, "Ġclust": 6284, "What": 6285, "Ġpersist": 6286, "ĠBrazil": 6287, "Ġvessels": 6288, "Ġmold": 6289, "Ġwilling": 6290, "BS": 6291, "ĠAgricult": 6292, "ĠLook": 6293, "Ġ36": 6294, "âĢĻ,": 6295, "Ġgluc": 6296, "Ġfighting": 6297, "Ġhydrogen": 6298, "zed": 6299, "ĠWik": 6300, "aped": 6301, "ĠRoyal": 6302, "Ġmixed": 6303, "agon": 6304, "Ġneck": 6305, "Ġcarb": 6306, "Ġwhatever": 6307, "Ġtransportation": 6308, "Ġparticipate": 6309, "Ġexplo": 6310, "icon": 6311, "umes": 6312, "Ġreserv": 6313, "Ġserver": 6314, "Ġconventional": 6315, "Ġbio": 6316, "ĠFind": 6317, "ĠThree": 6318, "nect": 6319, "ĠGard": 6320, "utch": 6321, "Ġuniversity": 6322, "Ġcommunicate": 6323, "ĠOh": 6324, "Ġacknow": 6325, "Ġhighlight": 6326, "Ġknows": 6327, "ĠNative": 6328, "rovers": 6329, "Ġgrew": 6330, "hop": 6331, "ala": 6332, "ediat": 6333, "edu": 6334, "ĠNut": 6335, "Ġcart": 6336, "ĠEmpire": 6337, "icide": 6338, "ĠEc": 6339, "Ġscan": 6340, "fish": 6341, "ĠSever": 6342, "Ġbread": 6343, "Ġdrawing": 6344, "Ã³": 6345, "Ġregist": 6346, "itudes": 6347, "Ġexists": 6348, "ione": 6349, "izer": 6350, "Ġvoltage": 6351, "Ġmechanisms": 6352, "ĠSing": 6353, "Ġregul": 6354, "Ġbiggest": 6355, "called": 6356, "Ġdebate": 6357, "Ġfeeding": 6358, "ester": 6359, "orous": 6360, "Ġborder": 6361, "ribe": 6362, "Ġcomparison": 6363, "Ġrelax": 6364, "Ġmild": 6365, "Ġnecessarily": 6366, "Ġresolution": 6367, "EP": 6368, "ĠBank": 6369, "ĠPop": 6370, "Ġvulnerable": 6371, "Ġdownload": 6372, "Ġinstructions": 6373, "irds": 6374, "Ġpron": 6375, "Ġadministr": 6376, "Ġyield": 6377, "ĠOcean": 6378, "Ġ1997": 6379, "Ġscript": 6380, "isk": 6381, "ĠBack": 6382, "Ġcapture": 6383, "ĠSet": 6384, "Ġsurve": 6385, "aph": 6386, "Ġrequest": 6387, "ĠValley": 6388, "Ġcats": 6389, "01": 6390, "Ġfabric": 6391, "Ġwhereas": 6392, "ĠAccess": 6393, "ĠCy": 6394, "Ġrising": 6395, "Ġratio": 6396, "ĠTeac": 6397, "ĠUnfortunately": 6398, "Ġfrequent": 6399, "Ġjoined": 6400, "Ġarrange": 6401, "rd": 6402, "ĠSimilar": 6403, "Ġwriter": 6404, "Ġlisten": 6405, "Ġpool": 6406, "Ġturns": 6407, "Ġsupposed": 6408, "ĠSciences": 6409, "Ġmac": 6410, "ĠTable": 6411, "Ġlies": 6412, "Ġcompounds": 6413, "Ġterritory": 6414, "ĠScott": 6415, "Ġhoriz": 6416, "inity": 6417, "Ġeastern": 6418, "Ġrow": 6419, "ĠFurthermore": 6420, "bour": 6421, "ctor": 6422, "Ġtea": 6423, "Ġconnections": 6424, "ointed": 6425, "ĠMoreover": 6426, "Ġcontained": 6427, "Ġtwenty": 6428, "ĠChicago": 6429, "ĠAdditionally": 6430, "Ġtex": 6431, "point": 6432, "Ġbrand": 6433, "Ġrid": 6434, "ictionary": 6435, "Ġdemonstrated": 6436, "stract": 6437, "Ġpsychological": 6438, "Ġteen": 6439, "55": 6440, "Ġhabits": 6441, "ymph": 6442, "Ġrecognition": 6443, "Ġdistur": 6444, "Ġvoc": 6445, "Ġusage": 6446, "Ġfeedback": 6447, "Ġarchitecture": 6448, "Ġunderlying": 6449, "ĠBab": 6450, "Ġvariable": 6451, "Ġdefe": 6452, "osion": 6453, "orses": 6454, "Ġ32": 6455, "ĠEffect": 6456, "ĠNon": 6457, "Ġissued": 6458, "ĠChapter": 6459, "ĠProp": 6460, "ading": 6461, "Ġhero": 6462, "ĠEqu": 6463, "Ġtaste": 6464, "Ġresulted": 6465, "DP": 6466, "Ġguarant": 6467, "Ġmos": 6468, "Ġorganisms": 6469, "Ġ1960": 6470, "LA": 6471, "Ġnearby": 6472, "Ġrank": 6473, "Ġpercentage": 6474, "ĠFace": 6475, "Ġveter": 6476, "Ġmachines": 6477, "Ġcustomers": 6478, "Ġshot": 6479, "Ġbeliefs": 6480, "ĠCarolina": 6481, "riers": 6482, "ups": 6483, "Ġstring": 6484, "Ġhousing": 6485, "ĠFamily": 6486, "Ġtrained": 6487, "Ġnoise": 6488, "Ġcounty": 6489, "Ġemployment": 6490, "Ġreactions": 6491, "ĠÂ·": 6492, "Ġequivalent": 6493, "Ġsmoke": 6494, "Ġparticipation": 6495, "Ġdomain": 6496, "teenth": 6497, "Ġcup": 6498, "ĠHy": 6499, "ora": 6500, "Ġdemonstrate": 6501, "itter": 6502, "Ġprompt": 6503, "Ġpolitics": 6504, "Ġbreathing": 6505, "ih": 6506, "Ġswim": 6507, "Ġprove": 6508, "Ġinstruments": 6509, "Ġpup": 6510, "Ã¶": 6511, "Ġepid": 6512, "ĠBig": 6513, "Ġblocks": 6514, "top": 6515, "Ġplayers": 6516, "Ġcompetition": 6517, "rus": 6518, "Ġcryst": 6519, "ĠResearchers": 6520, "Ġdebt": 6521, "Ġfu": 6522, "ĠLar": 6523, "Ġshop": 6524, "ĠComput": 6525, "ĠIrish": 6526, "Ġcontamin": 6527, "ĠTimes": 6528, "ĠGuide": 6529, "icious": 6530, "Ġsoul": 6531, "hav": 6532, "Ġobservations": 6533, "ulty": 6534, "Ġbot": 6535, "icit": 6536, "Ġprev": 6537, "Ġaccident": 6538, "ĠRevolution": 6539, "mes": 6540, "Ġtall": 6541, "ÙĦ": 6542, "Ġpreval": 6543, "Ġflag": 6544, "Ġpresentation": 6545, "inating": 6546, "Ġexplanation": 6547, "bec": 6548, "ĠVit": 6549, "ĠSecurity": 6550, "Ġgap": 6551, "Ġtun": 6552, "Ġmatters": 6553, "Ġhypothes": 6554, "Ġ1995": 6555, "ĠArticle": 6556, "hered": 6557, "Ġimprovement": 6558, "ourage": 6559, "Ġbutter": 6560, "ĠItalian": 6561, "Ġrelation": 6562, "abled": 6563, "Ġwasn": 6564, "peror": 6565, "ĠPM": 6566, "Ġforth": 6567, "Ġdelay": 6568, "aud": 6569, "ediatric": 6570, "Ġobesity": 6571, "Ġentry": 6572, "Ġexamine": 6573, "OC": 6574, "Ġobjective": 6575, "Ġconfidence": 6576, "Ġdefine": 6577, "Ġmanif": 6578, "Ġartificial": 6579, "Ġcards": 6580, "ĠViet": 6581, "Ġgreenhouse": 6582, "ĠParty": 6583, "Ġstable": 6584, "....": 6585, "ĠSpecial": 6586, "Ġru": 6587, "Ġlegs": 6588, "ĠStart": 6589, "OU": 6590, "Ġinhib": 6591, "Ġpositions": 6592, "79": 6593, "espread": 6594, "ĠOrig": 6595, "ĠPy": 6596, "Ġahead": 6597, "ĠLanguage": 6598, "ĠPlant": 6599, "Ġtank": 6600, "ĠWall": 6601, "Ġsmoking": 6602, "ĠIndians": 6603, "Ġ75": 6604, "Ġdelivery": 6605, "Ġcrow": 6606, "Ġdent": 6607, "Ġmaps": 6608, "Ġthy": 6609, "Ġ1996": 6610, "tra": 6611, "how": 6612, "Ġelection": 6613, "Ġtrip": 6614, "idity": 6615, "ĠLit": 6616, "ĠDar": 6617, "Ġgenerations": 6618, "ĠOpen": 6619, "Ġhem": 6620, "Ġment": 6621, "Ġpartner": 6622, "Ġtrials": 6623, "iability": 6624, "ĠBus": 6625, "Ġcentre": 6626, "Ġnerve": 6627, "ĠHoly": 6628, "Ġeveryday": 6629, "Ġmand": 6630, "Ġlayers": 6631, "Ġspok": 6632, "ĠDen": 6633, "ults": 6634, "ugh": 6635, "erior": 6636, "Ġfever": 6637, "Ġpassage": 6638, "ĠIra": 6639, "ĠCho": 6640, "Ġsections": 6641, "Ġagreed": 6642, "Ġholds": 6643, "Ġsacr": 6644, "yles": 6645, "Ġcolumn": 6646, "ĠJac": 6647, "Ġdanger": 6648, "Ġfunctional": 6649, "Ġzero": 6650, "ĠFour": 6651, "Ġnone": 6652, "Ġmanip": 6653, "Ġinsulin": 6654, "Ġdestruction": 6655, "ĠPet": 6656, "exam": 6657, "Ġdiagnosed": 6658, "Ġoperate": 6659, "Ġblow": 6660, "ĠMer": 6661, "Ġcommitted": 6662, "Ġmice": 6663, "Ġflo": 6664, "cture": 6665, "Ġarrest": 6666, "opy": 6667, "ĠMartin": 6668, "ĠAge": 6669, "ureau": 6670, "Ġcalories": 6671, "Ġmatch": 6672, "ployment": 6673, "Ġasthma": 6674, "Ġbridge": 6675, "Ġaccessible": 6676, "%)": 6677, "There": 6678, "Ġcoastal": 6679, "ĠScot": 6680, "Ġestimates": 6681, "Ġintellectual": 6682, "Ġconsumer": 6683, "aked": 6684, "Ġsucceed": 6685, "ĠMel": 6686, "Ġdepartment": 6687, "Ġphysics": 6688, "Ġille": 6689, "Ġspaces": 6690, "Ġnob": 6691, "gov": 6692, "isdom": 6693, "Ġassociation": 6694, "itely": 6695, "hyth": 6696, "Ġchrom": 6697, "ĠVictor": 6698, "itivity": 6699, "Ġchick": 6700, "Ġlaunched": 6701, "Ġconclusion": 6702, "Ġpainting": 6703, "Ġspending": 6704, "ĠÂ©": 6705, "Ġlegislation": 6706, "such": 6707, "Ġhur": 6708, "ipes": 6709, "Ġcovers": 6710, "Ġmaintaining": 6711, "As": 6712, "Ġforget": 6713, "Ġaward": 6714, "Ġintegrated": 6715, "eless": 6716, "Ġmeters": 6717, "Ġconstructed": 6718, "You": 6719, "Ġrivers": 6720, "weight": 6721, "Ġnegot": 6722, "ĠYoung": 6723, "Ġinvolving": 6724, "Ġruns": 6725, "Ġcamera": 6726, "Ġlegisl": 6727, "He": 6728, "Ġongoing": 6729, "Ġsole": 6730, "43": 6731, "while": 6732, "Ġindependence": 6733, "omer": 6734, "Ġdivision": 6735, "Ġsheet": 6736, "Ġelectro": 6737, "Ġinteractions": 6738, "Ġtissues": 6739, "Ġestimate": 6740, "ĠAdv": 6741, "Ġframe": 6742, "Ġearn": 6743, "ĠGeorg": 6744, "ĠKingdom": 6745, "ĠYear": 6746, "Ġ150": 6747, "Ġholding": 6748, "Ġrecept": 6749, "Ġneur": 6750, "Ġearthqu": 6751, "Ġfold": 6752, "Ġcategories": 6753, "Ġmode": 6754, "Ġkidney": 6755, "Ġmood": 6756, "Ġpapers": 6757, "earing": 6758, "Ġroute": 6759, "ĠServices": 6760, "Ġbiod": 6761, "cul": 6762, "iratory": 6763, "Ġdiscrimination": 6764, "quit": 6765, "ritis": 6766, "Ġended": 6767, "Ġpair": 6768, "asters": 6769, "Ġ38": 6770, "Ġcrime": 6771, "Ġreven": 6772, "ighter": 6773, "ĠEastern": 6774, "scale": 6775, "66": 6776, "ĠMean": 6777, "avery": 6778, "Ġboy": 6779, "Ġvs": 6780, "ĠChange": 6781, "Ġphoto": 6782, "but": 6783, "etime": 6784, "ĠLow": 6785, "Ġdepart": 6786, "ĠNever": 6787, "Ġorient": 6788, "Ġburning": 6789, "Ġminerals": 6790, "ĠResources": 6791, "Ġemployed": 6792, "Ġbrings": 6793, "ĠAuthor": 6794, "Ġundert": 6795, "Ġentered": 6796, "ented": 6797, "Ġprogramming": 6798, "Ġindicated": 6799, "cher": 6800, "IA": 6801, "Ġstre": 6802, "plant": 6803, "anches": 6804, "Ġgram": 6805, "Ġprohib": 6806, "ĠAtlantic": 6807, "Ġexpansion": 6808, "onia": 6809, "ishment": 6810, "ĠZeal": 6811, "Ġdollars": 6812, "Ġorgans": 6813, "cyclop": 6814, "ĠNext": 6815, "that": 6816, "ĠFund": 6817, "Ġparallel": 6818, "ĠType": 6819, "ĠMethod": 6820, "ĠSeveral": 6821, "ĠMen": 6822, "Ġsubstances": 6823, "Ġislands": 6824, "ĠSar": 6825, "Ġdrawn": 6826, "Ġstreet": 6827, "Ġwidespread": 6828, "produ": 6829, "ĠTre": 6830, "ĠSil": 6831, "Ġholid": 6832, "Ġdistributed": 6833, "Ġputting": 6834, "Ġsettings": 6835, "Ġhun": 6836, "ĠCoast": 6837, "azine": 6838, "Ġmolecular": 6839, "uh": 6840, "Ġrocks": 6841, "ĠLeg": 6842, "Ġpoison": 6843, "Ġhusband": 6844, "orph": 6845, "ĠResp": 6846, "Ġmales": 6847, "Ġwithd": 6848, "Ġrealize": 6849, "Ġchallenging": 6850, "Ġbreath": 6851, "Ġske": 6852, "Ġring": 6853, "Ġvac": 6854, "oples": 6855, "Ġreliable": 6856, "Ġsmooth": 6857, "IP": 6858, "Ġpublication": 6859, "ether": 6860, "Ġcontrovers": 6861, "Ġexercises": 6862, "Ġloved": 6863, "Ġvictims": 6864, "hesis": 6865, "Ġrepair": 6866, "Ġcrim": 6867, "rary": 6868, "Ġkne": 6869, "Ġmarkets": 6870, "Ġstrongly": 6871, "arsh": 6872, "Ġdamaged": 6873, "ĠForest": 6874, "Ġneither": 6875, "uts": 6876, "Ġreceiving": 6877, "Ġcm": 6878, "Ġconven": 6879, "oding": 6880, "opes": 6881, "Ġvirtual": 6882, "Ġfract": 6883, "ĠKar": 6884, "Ġmeal": 6885, "42": 6886, "Ġshif": 6887, "Ġboys": 6888, "ĠLess": 6889, "using": 6890, "Ġrice": 6891, "Ġsomewhat": 6892, "Ġphenomenon": 6893, "ĠZealand": 6894, "umps": 6895, "Ġcontrols": 6896, "ohyd": 6897, "Ġrely": 6898, "car": 6899, "een": 6900, "Ġoblig": 6901, "gers": 6902, "usal": 6903, "Ġfemales": 6904, "she": 6905, "hent": 6906, "Ġdeclared": 6907, "Ġtight": 6908, "Ġfashion": 6909, "Ġcircle": 6910, "Ġindustries": 6911, "Ġscene": 6912, "Ġtrouble": 6913, "88": 6914, "fit": 6915, "Ġmerely": 6916, "Ġhistoric": 6917, "Ġmoisture": 6918, "Ġcomposed": 6919, "Ġtel": 6920, "ĠNaz": 6921, "Ġmeth": 6922, "dule": 6923, "Ġconstantly": 6924, "Ġintense": 6925, "ella": 6926, "Ġofficers": 6927, "ĠAP": 6928, "ĠCast": 6929, "Ġguidance": 6930, "Ġhonor": 6931, "ĠIraq": 6932, "Ġapproved": 6933, "Ġglucose": 6934, "Is": 6935, "ĠVer": 6936, "ĠSecret": 6937, "ĠEst": 6938, "Ġevaluate": 6939, "ibl": 6940, "Ġcenters": 6941, "OL": 6942, "irt": 6943, "ĠOxford": 6944, "Ġtexts": 6945, "ĠRom": 6946, "Ġhole": 6947, "making": 6948, "Ġdesigns": 6949, "Ġadequate": 6950, "ĠImm": 6951, "ĠâĨ": 6952, "Ġsail": 6953, "Ġpregnant": 6954, "Ġbanks": 6955, "Ġnest": 6956, "41": 6957, "ĠSup": 6958, "Ġinstalled": 6959, "etics": 6960, "Ġrelief": 6961, "Ġrig": 6962, "ocation": 6963, "ĠBal": 6964, "Ġmissing": 6965, "Ġped": 6966, "Ġturning": 6967, "Ġbeings": 6968, "asty": 6969, "Ġdoi": 6970, "IG": 6971, "ĠAgency": 6972, "Ġpreparation": 6973, "Ġproportion": 6974, "Ġengaged": 6975, "gs": 6976, "Ġfurn": 6977, "ĠColumbia": 6978, "Ġvolcan": 6979, "Ġmeasurements": 6980, "omp": 6981, "Ġadvert": 6982, "Ġagents": 6983, "Ġworry": 6984, "ĠMult": 6985, "Ġfro": 6986, "ĠPolic": 6987, "ĠYes": 6988, "ĠHill": 6989, "Ġoutbre": 6990, "Ġmining": 6991, "Ġasking": 6992, "Ġcategory": 6993, "Ġ65": 6994, "RA": 6995, "Ġtons": 6996, "Ġcoc": 6997, "irus": 6998, "Ġthanks": 6999, "ĠAngel": 7000, "Ġfulf": 7001, "Ġnervous": 7002, "Ġsought": 7003, "Ġwait": 7004, "Ġblind": 7005, "inson": 7006, "ĠMS": 7007, "ĠEp": 7008, "Ġartists": 7009, "airy": 7010, "Ġmm": 7011, "ĠLib": 7012, "Ġescape": 7013, "ĠIns": 7014, "ĠKey": 7015, "Ġrecommendations": 7016, "Ġstrict": 7017, "forcement": 7018, "Ġmaintained": 7019, "Ġmathematics": 7020, "ĠEU": 7021, "CD": 7022, "Ġheating": 7023, "nels": 7024, "Ġarchae": 7025, "ĠMD": 7026, "Ġdependent": 7027, "Ġroles": 7028, "Ġoffering": 7029, "Ġclaimed": 7030, "gical": 7031, "Ġsignificance": 7032, "Ġtheories": 7033, "ĠTV": 7034, "onds": 7035, "Ġreduces": 7036, "Ġbabies": 7037, "Ġpharm": 7038, "Ġrenewable": 7039, "bra": 7040, "Ġserving": 7041, "Ġfacility": 7042, "Ġannounced": 7043, "Ġcarrying": 7044, "Ġpounds": 7045, "ĠKorea": 7046, "Ġmessages": 7047, "oln": 7048, "olesc": 7049, "Al": 7050, "Ġstatistics": 7051, "ivered": 7052, "ĠBill": 7053, "Ġcompare": 7054, "Ġcompris": 7055, "Ġmoves": 7056, "ĠDirector": 7057, "Ġconfirmed": 7058, "sis": 7059, "Ġfourth": 7060, "Ġcombat": 7061, "ĠScientists": 7062, "Ġpanel": 7063, "heric": 7064, "otes": 7065, "ĠHor": 7066, "Ġingredients": 7067, "operation": 7068, "ipedia": 7069, "va": 7070, "Ġcontemporary": 7071, "igan": 7072, "ĠChristmas": 7073, "aded": 7074, "Ġfacing": 7075, "ady": 7076, "herent": 7077, "Ġbeauty": 7078, "ĠIslam": 7079, "Ġdefense": 7080, "ĠNetwork": 7081, "xual": 7082, "ĠLo": 7083, "ĠAsian": 7084, "Ġseeking": 7085, "Ġforg": 7086, "ĠMah": 7087, "Ġseemed": 7088, "Ġimplications": 7089, "Ġweapons": 7090, "heimer": 7091, "Ġexamination": 7092, "ĠPen": 7093, "Ġinterpretation": 7094, "Ġcriminal": 7095, "IM": 7096, "oven": 7097, "abulary": 7098, "Ġmeasurement": 7099, "ĠSource": 7100, "Ġhorses": 7101, "Ġtransp": 7102, "Ġpassing": 7103, "Ġplus": 7104, "Ġempt": 7105, "Ġcrew": 7106, "Ġshock": 7107, "Ġmicrob": 7108, "Ġneuro": 7109, "Ġtut": 7110, "Ġnitrogen": 7111, "ĠGrand": 7112, "Ġaband": 7113, "Ġbringing": 7114, "Ġviruses": 7115, "ĠIndust": 7116, "rial": 7117, "ĠTry": 7118, "ĠWord": 7119, "Ġproof": 7120, "Ġoutcome": 7121, "ĠDown": 7122, "Ġtemple": 7123, "ĠWindows": 7124, "Ġinher": 7125, "ĠCommunity": 7126, "Ġid": 7127, "Ġbath": 7128, "idential": 7129, "Ġsurfaces": 7130, "Ġrarely": 7131, "ĠDistrict": 7132, "06": 7133, "ĠDev": 7134, "ortion": 7135, "Ġconversation": 7136, "Ġassume": 7137, "nat": 7138, "eut": 7139, "ĠJeff": 7140, "cons": 7141, "rey": 7142, "Ġtub": 7143, "Ġplanned": 7144, "Ġconsidering": 7145, "Ġchest": 7146, "Ġtheme": 7147, "Ġconsiderable": 7148, "Ġdischar": 7149, "Ġbiology": 7150, "Ġincred": 7151, "Ġtract": 7152, "ĠSuper": 7153, "Ġtowns": 7154, "Ġfavorite": 7155, "Ġcomplicated": 7156, "VID": 7157, "pes": 7158, "Ġwriters": 7159, "Ġaccuracy": 7160, "'m": 7161, "ĠVen": 7162, "Ġsatellite": 7163, "rite": 7164, "Ġmicrosc": 7165, "Ġ400": 7166, "Ġroughly": 7167, "ĠWithout": 7168, "wing": 7169, "ĠÐ": 7170, "eren": 7171, "Ġopposed": 7172, "ĠStar": 7173, "ĠPot": 7174, "ĠGr": 7175, "iral": 7176, "orders": 7177, "rowing": 7178, "Ġjudge": 7179, "ushed": 7180, "Ġshapes": 7181, "ĠPerhaps": 7182, "Ġtargets": 7183, "Ġrespectively": 7184, "itual": 7185, "Ġordered": 7186, "thritis": 7187, "Ġscore": 7188, "Ġinformed": 7189, "Ġprincipal": 7190, "greg": 7191, "health": 7192, "%.": 7193, "Ġknowing": 7194, "ĠIss": 7195, "Ġclothing": 7196, "Ġdefend": 7197, "Ġsigned": 7198, "ĠUr": 7199, "Ġelected": 7200, "Ġtelevision": 7201, "Ġwound": 7202, "Ġmineral": 7203, "ĠWhich": 7204, "Ġinterpre": 7205, "Ġminute": 7206, "esides": 7207, "ĠOnline": 7208, "Ġfairly": 7209, "IR": 7210, "Ġdesired": 7211, "Ġcareful": 7212, "Ġattempts": 7213, "Ġtube": 7214, "Ġseconds": 7215, "71": 7216, "vin": 7217, "ĠWorks": 7218, "Ġlake": 7219, "Ġtheore": 7220, "Ġcav": 7221, "Ġvariables": 7222, "Ġpan": 7223, "Ġvisitors": 7224, "Ġ)": 7225, "ano": 7226, "Ġplenty": 7227, "Ġaims": 7228, "ĠWhether": 7229, "Ġdisaster": 7230, "ĠHeb": 7231, "Ġstimul": 7232, "ixture": 7233, "Ġsharp": 7234, "ĠSund": 7235, "AA": 7236, "outs": 7237, "Ġdemocracy": 7238, "ĠRock": 7239, "Ġmechanical": 7240, "Ø§": 7241, "amins": 7242, "Ġsubsequent": 7243, "yal": 7244, "Ġfarming": 7245, "Ġinfluenced": 7246, "rous": 7247, "agram": 7248, "Ġlaunch": 7249, "vard": 7250, "Ġarts": 7251, "Ġessentially": 7252, "Ġgradually": 7253, "Ġcollaboration": 7254, "Ġstrain": 7255, "Ġcaptured": 7256, "OM": 7257, "rooms": 7258, "Ġitem": 7259, "Ġclar": 7260, "Ġowner": 7261, "Ġencouraged": 7262, "Ġinsert": 7263, "alls": 7264, "Ġwine": 7265, "Ġevil": 7266, "IDS": 7267, "ĠIntrodu": 7268, "Ġcriteria": 7269, "Ġcompens": 7270, "Ġcompound": 7271, "occ": 7272, "otype": 7273, "Ġimagine": 7274, "eness": 7275, "Ġpipe": 7276, "iah": 7277, "Ġfinished": 7278, "ĠChristians": 7279, "ĠSwed": 7280, "ĠSand": 7281, "ĠFacebook": 7282, "ani": 7283, "ĠIran": 7284, "Ġneighborhood": 7285, "Ġdelivered": 7286, "ĠOrganization": 7287, "Ġ1950": 7288, "Ġremind": 7289, "incoln": 7290, "Ġdealing": 7291, "Ġconcerning": 7292, "Ġkilomet": 7293, "ĠLight": 7294, "ĠCentre": 7295, "Ġimplemented": 7296, "itarian": 7297, "ĠEr": 7298, "Ġdose": 7299, "Ġdetection": 7300, "Ġequally": 7301, "72": 7302, "Ġexclus": 7303, "Ġstronger": 7304, "Ġfer": 7305, "roat": 7306, "ĠLiter": 7307, "Ġmetabol": 7308, "Ġnose": 7309, "Ġproved": 7310, "theless": 7311, "Ġwarning": 7312, "Ġirrit": 7313, "ĠMoon": 7314, "Ġdefect": 7315, "ĠTreatment": 7316, "Ġadvantages": 7317, "Ġinn": 7318, "Ġregulation": 7319, "Ġbreeding": 7320, "Ġangle": 7321, "Ph": 7322, "Ġ1994": 7323, "Ġteams": 7324, "Ġunusual": 7325, "Ġsession": 7326, "Ġeffectiveness": 7327, "ĠConservation": 7328, "Ġhorizon": 7329, "bu": 7330, "Ġjump": 7331, "including": 7332, "ĠCa": 7333, "rot": 7334, "Ġ48": 7335, "Ġphysician": 7336, "Ġassigned": 7337, "Ġobserve": 7338, "ĠFire": 7339, "Ġterror": 7340, "Ġbranch": 7341, "aska": 7342, "hyd": 7343, "Ġerrors": 7344, "Ġthreats": 7345, "Ar": 7346, "Ġlie": 7347, "ruption": 7348, "ĠFather": 7349, "Ġpresents": 7350, "Ġdecor": 7351, "Ġpreventing": 7352, "Ġpeak": 7353, "ersonal": 7354, "aired": 7355, "essions": 7356, "Ġcooking": 7357, "Ġdeeper": 7358, "Ġdifficulties": 7359, "Ġdates": 7360, "osh": 7361, "Ġproven": 7362, "ĠNeu": 7363, "ĠIdent": 7364, "Ġedition": 7365, "Ġgro": 7366, "ĠSir": 7367, "mers": 7368, "Ġcommission": 7369, "Ġphosph": 7370, "elfare": 7371, "aming": 7372, "Ġguard": 7373, "Ġstructural": 7374, "oston": 7375, "ommod": 7376, "Ġgalax": 7377, "Ġflour": 7378, "ĠDou": 7379, "Ġsatisf": 7380, "Ġacute": 7381, "Ġuncertain": 7382, "Ġstatements": 7383, "98": 7384, "ĠForce": 7385, "lishing": 7386, "Ġstuff": 7387, "Ġexcessive": 7388, "htt": 7389, "ĠNov": 7390, "73": 7391, "apse": 7392, "Ġartist": 7393, "Ġbigger": 7394, "Ġdys": 7395, "ĠAdministration": 7396, "Ġexamined": 7397, "Ġanalys": 7398, "Ġmarks": 7399, "Ġabsence": 7400, "onym": 7401, "Ġmaybe": 7402, "Ġlaid": 7403, "Ġserves": 7404, "oured": 7405, "reek": 7406, "ĠHeart": 7407, "ĠAM": 7408, "Ġnewly": 7409, "Ġradical": 7410, "acco": 7411, "Ġtraditions": 7412, "Ġfocuses": 7413, "ĠReading": 7414, "ude": 7415, "Ġchlor": 7416, "Ġabnormal": 7417, "Ġouter": 7418, "uits": 7419, "Ġbees": 7420, "Ġrose": 7421, "ĠAND": 7422, "American": 7423, "ĠLead": 7424, "oom": 7425, "Ġcash": 7426, "08": 7427, "cient": 7428, "ograp": 7429, "ey": 7430, "Ġfalls": 7431, "Ġfishing": 7432, "Ġremoval": 7433, "Ġexperimental": 7434, "Ġvarieties": 7435, "Ġspin": 7436, "Ġparas": 7437, "ĠImp": 7438, "ricts": 7439, "ĠModern": 7440, "Ġorbit": 7441, "Ġearliest": 7442, "oir": 7443, "Ġinvestigation": 7444, "Ġcham": 7445, "encing": 7446, "ĠCross": 7447, "adder": 7448, "iana": 7449, "ĠPolit": 7450, "Ġhazard": 7451, "example": 7452, "otton": 7453, "Ġinfant": 7454, "ovascular": 7455, "Ġmodified": 7456, "Ġbranches": 7457, "Ġpoem": 7458, "68": 7459, "Ġconfig": 7460, "Ġinnovation": 7461, "Ġidentification": 7462, "UN": 7463, "Ġsport": 7464, "Ġplanets": 7465, "Ġhydro": 7466, "Ġscreening": 7467, "ura": 7468, "ĠProtection": 7469, "HD": 7470, "Ġslavery": 7471, "ventions": 7472, "iological": 7473, "Ġcorner": 7474, "amics": 7475, "ĠHaving": 7476, "vania": 7477, "Ġsitting": 7478, "ĠCell": 7479, "istical": 7480, "Ġsuffered": 7481, "Ġeliminate": 7482, "Ġaccompan": 7483, "Ġisolated": 7484, "ba": 7485, "ruit": 7486, "Ġdemands": 7487, "Ġscientist": 7488, "Ġ33": 7489, "ĠAlz": 7490, "ogether": 7491, "Ġspectrum": 7492, "Ġantic": 7493, "ĠTom": 7494, "Ġuniversal": 7495, "Ġintent": 7496, "Ġsettlement": 7497, "tles": 7498, "Ġtrigger": 7499, "Ġtropical": 7500, "ĠPrevention": 7501, "Ġstead": 7502, "Ġgained": 7503, "Ġsenior": 7504, "SS": 7505, "ĠTim": 7506, "Ġconsume": 7507, "olving": 7508, "ĠGar": 7509, "oric": 7510, "Ġconj": 7511, "fts": 7512, "Ġtranslation": 7513, "Ġ||": 7514, "ilation": 7515, "semb": 7516, "ĠJul": 7517, "Ġinitially": 7518, "rays": 7519, "ĠDC": 7520, "Ġoverw": 7521, "isco": 7522, "Ġtrends": 7523, "Ġarray": 7524, "Ġhappening": 7525, "ĠPlay": 7526, "Ġencoun": 7527, "Ġfung": 7528, "ĠLincoln": 7529, "ĠInit": 7530, "74": 7531, "Ġepis": 7532, "Ġbreed": 7533, "ounce": 7534, "Ġprinted": 7535, "Ġfed": 7536, "riend": 7537, "Ġye": 7538, "ĠPage": 7539, "ĠHand": 7540, "Ġgut": 7541, "Ġdriven": 7542, "Ġroads": 7543, "Ġconference": 7544, "Ġlearners": 7545, "Ġswitch": 7546, "Ġcharacterized": 7547, "Ġfest": 7548, "Ġusual": 7549, "rency": 7550, "ĠAsk": 7551, "Ġbomb": 7552, "Ġreward": 7553, "Ġcorrel": 7554, "Ġcopper": 7555, "ĠSupreme": 7556, "ĠUt": 7557, "Ġcaught": 7558, "ogs": 7559, "Ġwindows": 7560, "iary": 7561, "ĠIndeed": 7562, "Ġamazing": 7563, "bar": 7564, "Ġintest": 7565, "gon": 7566, "Ġrect": 7567, "orted": 7568, "Ġcomfortable": 7569, "Ġmortality": 7570, "Ġtot": 7571, "Ġracial": 7572, "Ġ55": 7573, "ioxid": 7574, "ptions": 7575, "Ġinspired": 7576, "Ġpermission": 7577, "Ġtreating": 7578, "syl": 7579, "html": 7580, "trans": 7581, "Ġcab": 7582, "never": 7583, "Ġsubstantial": 7584, "Ġreveal": 7585, "ĠAvoid": 7586, "Ġ1993": 7587, "Ġexception": 7588, "Ġceremon": 7589, "then": 7590, "Ġhealing": 7591, "Ġadds": 7592, "ĠAgain": 7593, "sell": 7594, "Ġcounsel": 7595, "ĠCP": 7596, "Ġflows": 7597, "enger": 7598, "eck": 7599, "raining": 7600, "Ġfaced": 7601, "Ġflower": 7602, "ĠÙ": 7603, "Ġritual": 7604, "Ġdrought": 7605, "Ġcort": 7606, "Ġmountains": 7607, "arents": 7608, "An": 7609, "ĠMath": 7610, "Ġgranted": 7611, "bles": 7612, "Ġunw": 7613, "ĠFollowing": 7614, "itals": 7615, "ishop": 7616, "Ġdetected": 7617, "ĠSafety": 7618, "?\"": 7619, "ĠAlzheimer": 7620, "Ġrepresentation": 7621, "har": 7622, "ĠPass": 7623, "Ġrab": 7624, "Ġconcluded": 7625, "rance": 7626, "Ġformula": 7627, "Ġplayer": 7628, "Ġstores": 7629, "ĠPur": 7630, "64": 7631, "CT": 7632, "Ġprominent": 7633, "Ġcleaning": 7634, "Ġvisited": 7635, "ĠAssess": 7636, "Ġdiameter": 7637, "Ġdecreased": 7638, "Ġenorm": 7639, "ĠColl": 7640, "Ġ1992": 7641, "sen": 7642, "ĠPo": 7643, "Ġclient": 7644, "Ġscar": 7645, "ĠOper": 7646, "Ġadm": 7647, "Ġcomplications": 7648, "Ġvariation": 7649, "oli": 7650, "eli": 7651, "Ġtransact": 7652, "Ġmyst": 7653, "Ġgrows": 7654, "Ġholes": 7655, "Ġassets": 7656, "ĠLittle": 7657, "03": 7658, "Ġpin": 7659, "Ġquarter": 7660, "rison": 7661, "ĠAmaz": 7662, "abeth": 7663, "Ġconsideration": 7664, "ĠIV": 7665, "opic": 7666, "alm": 7667, "Ġvideos": 7668, "Ġalter": 7669, "ĠDid": 7670, "Ġpeoples": 7671, "Ġrespiratory": 7672, "Ġbiom": 7673, "df": 7674, "Ġacres": 7675, "ĠAL": 7676, "Ġdirected": 7677, "Ġliteracy": 7678, "ĠEdward": 7679, "Ġevolved": 7680, "OW": 7681, "ĠFar": 7682, "atively": 7683, "ĠRemember": 7684, "sm": 7685, "Ġintensity": 7686, "Ġanywhere": 7687, "Ġaccommod": 7688, "Ġ;": 7689, "anet": 7690, "Ġrational": 7691, "Ġfinds": 7692, "class": 7693, "ĠBeing": 7694, "Ġsuperior": 7695, "Ġsplit": 7696, "New": 7697, "Ġ00": 7698, "agraph": 7699, "Ġgrid": 7700, "Ġfra": 7701, "Ġrecover": 7702, "ima": 7703, "ĠDesc": 7704, "ustain": 7705, "ulpt": 7706, "riz": 7707, "Ġplot": 7708, "Ġexperiencing": 7709, "Ġdisabilities": 7710, "Ġoldest": 7711, "aneously": 7712, "Ġemphasis": 7713, "night": 7714, "illa": 7715, "ĠEliz": 7716, "yer": 7717, "Ġabilities": 7718, "Ġampl": 7719, "ucky": 7720, "from": 7721, "Ġoccurring": 7722, "Ġobjectives": 7723, "Ġprovider": 7724, "Ġstations": 7725, "Ġmeasuring": 7726, "Ġobservation": 7727, "Ġcattle": 7728, "Ġpestic": 7729, "Ġalph": 7730, "aws": 7731, "Ġidentifying": 7732, "ĠBased": 7733, "Ġeditor": 7734, "ieval": 7735, "ĠHead": 7736, "Ġturb": 7737, "Ġcarbohyd": 7738, "ĠJohnson": 7739, "iture": 7740, "Ġvan": 7741, "haust": 7742, "Ġpolar": 7743, "ĠContin": 7744, "Ġautomatically": 7745, "CR": 7746, "Ġwisdom": 7747, "Ġremed": 7748, "Ġprinting": 7749, "Ġunion": 7750, "irms": 7751, "Ġprocessed": 7752, "lete": 7753, "ansas": 7754, "century": 7755, "Ġslaves": 7756, "Ġsunlight": 7757, "pling": 7758, "Ġaged": 7759, "ĠUnlike": 7760, "Ġperception": 7761, "ĠBattle": 7762, "Ġgiant": 7763, "ĠView": 7764, "Ġargue": 7765, "Ġtu": 7766, "Ġlymph": 7767, "Ġbless": 7768, "Ġlaser": 7769, "ĠJustice": 7770, "Ġviewed": 7771, "Ġembry": 7772, "Ġwheel": 7773, "Ġhence": 7774, "quir": 7775, "Ġimaging": 7776, "Ġcontribution": 7777, "ĠBusiness": 7778, "Ġovercome": 7779, "Ġcopyright": 7780, "Ġmosquit": 7781, "04": 7782, "Ġsilver": 7783, "Ġregardless": 7784, "Ġopposition": 7785, "Ġhormone": 7786, "',": 7787, "Ġconce": 7788, "Ġmusical": 7789, "ĠIncre": 7790, "real": 7791, "Ġforming": 7792, "coming": 7793, "Ġcorrectly": 7794, "cyclopedia": 7795, "mm": 7796, "ĠBoston": 7797, "ĠDivision": 7798, "ĠThanks": 7799, "Ġwrites": 7800, "Ġconqu": 7801, "ĠDutch": 7802, "Ġchap": 7803, "ĠPrince": 7804, "otal": 7805, "Ġsubt": 7806, "Ġschedule": 7807, "Ġdietary": 7808, "icate": 7809, "athered": 7810, "Ġextend": 7811, "Ġuniform": 7812, "Ġaddressed": 7813, "ogenic": 7814, "Ġinterface": 7815, "endment": 7816, "ĠHebrew": 7817, "Ġcharged": 7818, "Ġfatty": 7819, "09": 7820, "ĠEngineering": 7821, "brane": 7822, "Ġdynamic": 7823, "sylvania": 7824, "ĠBooks": 7825, "ĠGeorgia": 7826, "icing": 7827, "Ġpanels": 7828, "onal": 7829, "Ġreaching": 7830, "acent": 7831, "Ġelder": 7832, "ocolate": 7833, "igue": 7834, "ĠPolicy": 7835, "Ġhidden": 7836, "otherapy": 7837, "ĠLy": 7838, "una": 7839, "Ġphrase": 7840, ".'": 7841, "Ġalive": 7842, "ĠObs": 7843, "angle": 7844, "Ġcalling": 7845, "Ġheads": 7846, "Ġheavily": 7847, "Ġdecay": 7848, "Ġhoney": 7849, "Ġcontributed": 7850, "Ġov": 7851, "reated": 7852, "ĠSolar": 7853, "rav": 7854, "EF": 7855, "Ġauthent": 7856, "ĠMinister": 7857, "Ġcovering": 7858, "ĠArctic": 7859, "Ġinsight": 7860, "Ġdisrupt": 7861, "ĠMichigan": 7862, "iva": 7863, "Ġlistening": 7864, "ĠBuilding": 7865, "Ġinhabit": 7866, "Ġantibiotics": 7867, "58": 7868, "child": 7869, "Ġperm": 7870, "anger": 7871, "Ġindigenous": 7872, "Ã¢": 7873, "asant": 7874, "ĠRh": 7875, "Ġweakness": 7876, "icy": 7877, "Ġcommunications": 7878, "Ġillegal": 7879, "Ġcoverage": 7880, ")|": 7881, "Ġworst": 7882, "ĠCambridge": 7883, "Ġsales": 7884, "Ġnice": 7885, "69": 7886, "Ġautism": 7887, "Ġsuscept": 7888, "Ġrelie": 7889, "Ġmothers": 7890, "AB": 7891, "ĠSection": 7892, "Ġ37": 7893, "angered": 7894, "ĠCard": 7895, "Ġgirl": 7896, "quar": 7897, "ptic": 7898, "Ġuncom": 7899, "Ġconcentrations": 7900, "Sp": 7901, "medi": 7902, "Ġadolesc": 7903, "Ġpit": 7904, "ercury": 7905, "Ġstability": 7906, "Ġplain": 7907, "Ġprotecting": 7908, "Ġregarded": 7909, "Ġoverwhel": 7910, "Ġmeals": 7911, "Ġfilter": 7912, "Ġeducators": 7913, "ĠVitamin": 7914, "ostic": 7915, "ĠRoad": 7916, "Ġinteractive": 7917, "Ġworship": 7918, "Ġvel": 7919, "allow": 7920, "Ġcommitment": 7921, "Ġtor": 7922, "ĠLater": 7923, "Ġadvent": 7924, "Ġagent": 7925, "rection": 7926, "ĠBa": 7927, "Ġbrush": 7928, "Ġcooling": 7929, "ĠMur": 7930, "Ġconserv": 7931, "Ġslave": 7932, "Ġethical": 7933, "02": 7934, "Ġthereby": 7935, "ĠDue": 7936, "soft": 7937, "ĠCOVID": 7938, "ĠChristianity": 7939, "Ġflying": 7940, "Ġecological": 7941, "Ġprofit": 7942, "Ġordinary": 7943, "usalem": 7944, "Ġinnovative": 7945, "door": 7946, "Ġmine": 7947, "Ġjur": 7948, "Ġfunctioning": 7949, "ĠImpro": 7950, "Ġnutrient": 7951, "gence": 7952, "Ġengineers": 7953, "Ġmoderate": 7954, "list": 7955, "iner": 7956, "Ġarguments": 7957, "],": 7958, "Ġtribes": 7959, "ĠDigital": 7960, "Ġvocabulary": 7961, "ĠHum": 7962, "Ġchemistry": 7963, "brid": 7964, "ENT": 7965, "ĠAnalysis": 7966, "erty": 7967, "ket": 7968, "rob": 7969, "Ġran": 7970, "aneous": 7971, "Ġpointed": 7972, "ĠSpring": 7973, "Ġhouseholds": 7974, "asts": 7975, "Ġbag": 7976, "Ġprogramme": 7977, "Ġles": 7978, "Ġargued": 7979, "Ġrhyth": 7980, "uset": 7981, "Ġlights": 7982, "ĠMedia": 7983, "irth": 7984, "Ġmathematical": 7985, "ĠWal": 7986, "Ġresearcher": 7987, "ĠMcC": 7988, "Ġupdated": 7989, "Ġorb": 7990, "Ġlens": 7991, "Ġsmell": 7992, "ĠQueen": 7993, "ĠOhio": 7994, "âĢ²": 7995, "oga": 7996, "Ġpreced": 7997, "Ġduty": 7998, "Ġappoint": 7999, "Ġthreatened": 8000, "Ġinitiative": 8001, "itory": 8002, "effect": 8003, "adel": 8004, "ĠVar": 8005, "ĠPan": 8006, "ĠRight": 8007, "Ġdriver": 8008, "Un": 8009, "forest": 8010, "Ġcontainer": 8011, "ĠPennsylvania": 8012, "Ġdesert": 8013, "oa": 8014, "Ġbrows": 8015, "Ġmixture": 8016, "Ġattach": 8017, "Ġflash": 8018, "Ġbelieves": 8019, "Ġdescript": 8020, "Ġfaces": 8021, "rolled": 8022, "Ġbehavioral": 8023, "holders": 8024, "Ġmanufacturers": 8025, "iments": 8026, "Ġexpanded": 8027, "Ġexped": 8028, "Ġseparated": 8029, "Ġacquired": 8030, "ibraries": 8031, "ami": 8032, "ĠGulf": 8033, "Ġprovince": 8034, "Ġstopped": 8035, "ĠCH": 8036, ".).": 8037, "ĠOk": 8038, "Ġlogic": 8039, "igate": 8040, "Ġincident": 8041, "just": 8042, "Ġtables": 8043, "Ġven": 8044, "Ġexplicit": 8045, "Ġproviders": 8046, "Ġgases": 8047, "Ġdism": 8048, "Ġgrain": 8049, "ĠSmall": 8050, "ĠSurvey": 8051, "Ġtong": 8052, "Ġproceed": 8053, "Ġdegrad": 8054, "achuset": 8055, "ĠWay": 8056, "rat": 8057, "neys": 8058, "Ġseat": 8059, "Ġelsewhere": 8060, "Ġthermal": 8061, "achusetts": 8062, "Ġcyber": 8063, "Ġnarrative": 8064, "ĠMot": 8065, "aren": 8066, "Ġfarms": 8067, "dr": 8068, "Ġglac": 8069, "Ġtaxes": 8070, "Ġreporting": 8071, "mann": 8072, "onomic": 8073, "uten": 8074, "Ġquiet": 8075, "Ġpy": 8076, "plete": 8077, "Ġburied": 8078, "Ġstake": 8079, "ipline": 8080, "Ġpreserve": 8081, "Ġprotective": 8082, "Ġkilling": 8083, "Ġ1930": 8084, "Ġinterior": 8085, "Ġvaccines": 8086, "Ġ39": 8087, "raham": 8088, "Ġ1991": 8089, "Ġchannel": 8090, "Ġaudio": 8091, "adow": 8092, "Ġversions": 8093, "Ġemerging": 8094, "ĠConsider": 8095, "ĠFrid": 8096, "urches": 8097, "Ġasc": 8098, "Ġsupplements": 8099, "Ġtick": 8100, "Ġcharacteristic": 8101, "Ġantioxid": 8102, "Ġharder": 8103, "ĠJerusalem": 8104, "Ġcomprom": 8105, "Ġvegetation": 8106, "ĠElizabeth": 8107, "Ġmanaging": 8108, "Ġmir": 8109, "Ġvitamins": 8110, "aya": 8111, "erman": 8112, "Ġaffecting": 8113, "Ġimprovements": 8114, "Ġfellow": 8115, "ifice": 8116, "Ġspat": 8117, "Ġappointed": 8118, "Ġhosp": 8119, "ĠLos": 8120, "ĠCirc": 8121, "Ġcommittee": 8122, "ĠÂ£": 8123, "Ġscores": 8124, "mod": 8125, "Ġorders": 8126, "Ġsizes": 8127, "ĠScotland": 8128, "ailable": 8129, "Ġcreatures": 8130, "Ġemotion": 8131, "Ġanalyze": 8132, "Ġlists": 8133, "Ġhumanity": 8134, "Ġcourts": 8135, "cking": 8136, "TH": 8137, "ĠHospital": 8138, "Ġdisability": 8139, "Ġbacterial": 8140, "def": 8141, "iations": 8142, "Ġlosses": 8143, "Ġwheat": 8144, "archy": 8145, "Ġfalling": 8146, "hus": 8147, "Ġaimed": 8148, "eting": 8149, "ymes": 8150, "Ġexciting": 8151, "Ġfur": 8152, "Ġparameters": 8153, "ĠJacob": 8154, "ographical": 8155, "Ġintroduce": 8156, "ĠHarvard": 8157, "ĠModel": 8158, "How": 8159, "lines": 8160, "Ġadverse": 8161, "Ġowned": 8162, "EE": 8163, "Ġsurge": 8164, "ĠMusic": 8165, "Ġdimens": 8166, "Ġshoot": 8167, "Ġenables": 8168, "Ġtrauma": 8169, "ĠLim": 8170, "bean": 8171, "ĠEconomic": 8172, "Ġbiodiversity": 8173, "Ã¤": 8174, "Ġestablishment": 8175, "Ġboundaries": 8176, "ricted": 8177, "ĠPalest": 8178, "Ġhunting": 8179, "Ġbeat": 8180, "Ġphysically": 8181, "Ġwaiting": 8182, "Ġexhaust": 8183, "Ġdim": 8184, "Ġboat": 8185, "ĠMassachusetts": 8186, "Ġfinger": 8187, "ĠOften": 8188, "ĠMax": 8189, "Ġhardware": 8190, "ĠSaint": 8191, "ĠCopyright": 8192, "ĠSpirit": 8193, "ĠLee": 8194, "Ġofficer": 8195, "ĠConference": 8196, "Ġstreets": 8197, "Ġentertain": 8198, "ĠIT": 8199, "acts": 8200, "writ": 8201, "rep": 8202, "Ġ34": 8203, "ipation": 8204, "Ġtempor": 8205, "ĠPartic": 8206, "Ġspoken": 8207, "BT": 8208, "Ġfires": 8209, "ĠMess": 8210, "ĠPak": 8211, "Ġnewspaper": 8212, "ĠID": 8213, "Ġheritage": 8214, "Ġwonderful": 8215, "ĠDrug": 8216, "ĠFrancisco": 8217, "opher": 8218, "Ġmigration": 8219, "ĠOtt": 8220, "ĠConvention": 8221, "Ġparad": 8222, "ĠSystems": 8223, "uum": 8224, "istant": 8225, "Ġattitude": 8226, "HS": 8227, "ĠOl": 8228, "Ġsubstit": 8229, "07": 8230, "Ġsched": 8231, "Ġroyal": 8232, "ĠHelp": 8233, "ĠHawai": 8234, "Ġswit": 8235, "Ġflexible": 8236, "Ġengaging": 8237, "TP": 8238, "Ġexhibit": 8239, "rical": 8240, "Ġliterary": 8241, "eor": 8242, "Ġsensitivity": 8243, "Ġcontributions": 8244, "ptom": 8245, "Ġtechnological": 8246, "Ġsimult": 8247, "ĠColorado": 8248, "struct": 8249, "Ġprobability": 8250, "56": 8251, "Ġclub": 8252, "ĠIslamic": 8253, "ĠSunday": 8254, "Ġ×": 8255, "elve": 8256, "Ġgrounds": 8257, "Gen": 8258, "bell": 8259, "Ġtransmit": 8260, "Ġfuels": 8261, "Ġconsumed": 8262, "Ġexecutive": 8263, "Ġdramatic": 8264, ")||": 8265, "ĠInvest": 8266, "Ġintern": 8267, "Ġevening": 8268, "ĠMajor": 8269, "Ġsculpt": 8270, "ĠEPA": 8271, "For": 8272, "ĠStill": 8273, "ĠPhysical": 8274, "ĠCrit": 8275, "Ġresc": 8276, "Ġexpectations": 8277, "asma": 8278, "Ġunex": 8279, "Ġfo": 8280, "Ġinequ": 8281, "Ġtemporary": 8282, "Ġbare": 8283, "Ġperceived": 8284, "Ġchances": 8285, "apes": 8286, "CE": 8287, "Ġstrike": 8288, "Ġassumed": 8289, "Ġcas": 8290, "Ġfought": 8291, "apor": 8292, "Ġmembrane": 8293, "Ġhabitats": 8294, "ĠGiven": 8295, "roud": 8296, "Ġreasonable": 8297, "Ġpriority": 8298, "Ġquantity": 8299, "Ġsettled": 8300, "Ġneutral": 8301, "Ġdense": 8302, "ipher": 8303, "iger": 8304, "Ġmg": 8305, "Ġsustainability": 8306, "Ġresid": 8307, "Ġavailability": 8308, "ĠBlue": 8309, "Ġvertical": 8310, "Ġpersonality": 8311, "ĠWithin": 8312, "iop": 8313, "Ġgrains": 8314, "thew": 8315, "Ġconsciousness": 8316, "And": 8317, "Ġfats": 8318, "aka": 8319, "ugg": 8320, "ouds": 8321, "ĠMaterial": 8322, "ĠTO": 8323, "Ġcow": 8324, "Ġrac": 8325, "Ġtumor": 8326, "ĠOffic": 8327, "ĠKids": 8328, "Ġsentences": 8329, "oul": 8330, "Ġmarketing": 8331, "ĠFred": 8332, "Ġappeal": 8333, "Ġsocieties": 8334, "ĠPhilipp": 8335, "Ġminds": 8336, "Ġempty": 8337, "Ġlip": 8338, "oys": 8339, "ila": 8340, "Ġdirections": 8341, "ĠMond": 8342, "aints": 8343, "Ġaddiction": 8344, "Ġgravity": 8345, "agen": 8346, "ĠSS": 8347, "urated": 8348, "Ġbutton": 8349, "ensed": 8350, "Ġexploration": 8351, "comm": 8352, "Ġequation": 8353, "Ġpropag": 8354, "ĠWatch": 8355, "ĠLin": 8356, "text": 8357, "Ġvariations": 8358, "Ġembra": 8359, "ĠWildlife": 8360, "Ġdance": 8361, "amine": 8362, "Ġdistricts": 8363, "Ġadvis": 8364, "Ġparagraph": 8365, "Ġheaven": 8366, "ati": 8367, "ĠCr": 8368, "thon": 8369, "Ġpromoting": 8370, "%,": 8371, "UR": 8372, "ĠHim": 8373, "Ġ2021": 8374, "Ġenormous": 8375, "berry": 8376, "Ġkeeps": 8377, "ĠSymptoms": 8378, "Ġcollective": 8379, "Ġbeans": 8380, "Ġperforming": 8381, "HA": 8382, "Ġextension": 8383, "ĠLaboratory": 8384, "Ġmouse": 8385, "pled": 8386, "Ġmyself": 8387, "ĠStan": 8388, "Ġentit": 8389, "Ġconclus": 8390, "rize": 8391, "ĠAbraham": 8392, "'.": 8393, "Ġsad": 8394, "Ġwider": 8395, "Ġcancers": 8396, "Ġpainful": 8397, "ĠBehav": 8398, "ometry": 8399, "Ġcorresponding": 8400, "oids": 8401, "Ġassert": 8402, "Ġplanting": 8403, "Ġcalculated": 8404, "Ġsaved": 8405, "lymp": 8406, "ĠAlexander": 8407, "Ġuniversities": 8408, "Ġcord": 8409, "Ġinterventions": 8410, "tw": 8411, "ĠCT": 8412, "Ġmetals": 8413, "Ġecosystems": 8414, "Ġcure": 8415, "Ġspray": 8416, "borne": 8417, "artic": 8418, "ogy": 8419, "ĠWikipedia": 8420, "Ġwithdraw": 8421, "kind": 8422, "Ġnotion": 8423, "Ġcardiovascular": 8424, "Ġinvestigate": 8425, "rem": 8426, "rained": 8427, "Ġguess": 8428, "Ġprofile": 8429, "Ġlungs": 8430, "ĠAgriculture": 8431, "ranean": 8432, "89": 8433, "Ġarmed": 8434, "Ġeru": 8435, "85": 8436, "ĠFriday": 8437, "Ġachievement": 8438, "ĠTestament": 8439, "Ġpreferred": 8440, "Ġphotographs": 8441, "Ġconvey": 8442, "fulness": 8443, "Ġlifetime": 8444, "Ġshaped": 8445, "Ġton": 8446, "mentia": 8447, "Ġ1920": 8448, "zer": 8449, "ĠVietnam": 8450, "Ġsensors": 8451, "ĠNavy": 8452, "ĠParliament": 8453, "Ġdress": 8454, "ashes": 8455, "Ġrequirement": 8456, "utation": 8457, "ĠMach": 8458, "Ġabstract": 8459, "Ġlowest": 8460, "Ġbegun": 8461, "Ġentering": 8462, "Ġfocusing": 8463, "endar": 8464, "Ġ95": 8465, "Ġmanager": 8466, "Ġdeeply": 8467, "Ġensuring": 8468, "Ġmes": 8469, "uscript": 8470, "ÙĲ": 8471, "Ġsevent": 8472, "Ġcustomer": 8473, "ĠTurk": 8474, "Ġwelfare": 8475, "Ex": 8476, "Ġ^": 8477, "Ġrh": 8478, "Ġspr": 8479, "rix": 8480, "ĠVe": 8481, "Ġviolent": 8482, "Ġchair": 8483, "aret": 8484, "Ġfisher": 8485, "zyme": 8486, "Ġlosing": 8487, "hea": 8488, "Ġbatteries": 8489, "63": 8490, "Ġtrick": 8491, "idal": 8492, "Ġcapabilities": 8493, "Ġstrategic": 8494, "Ġstyles": 8495, "ivest": 8496, "Ġfing": 8497, "nut": 8498, "Ġtelling": 8499, "EG": 8500, "Ġmanifest": 8501, "ĠStandard": 8502, "Ġaccompanied": 8503, "Ġpassion": 8504, "Ġfeels": 8505, "Ġvirtually": 8506, "Ġpromise": 8507, "IF": 8508, "ĠCode": 8509, "letes": 8510, "ao": 8511, "ette": 8512, "Ġraising": 8513, "Ġclassical": 8514, "Ġease": 8515, "ĠDiet": 8516, "ĠIslands": 8517, "Ġurine": 8518, "Ġtens": 8519, "Ġwouldn": 8520, "Ġclassified": 8521, "Ġrobot": 8522, "Ġpand": 8523, "Ġhall": 8524, "Ġreverse": 8525, "ĠConfed": 8526, "MP": 8527, "Ġremarkable": 8528, "wan": 8529, "ĠChief": 8530, "ĠVan": 8531, "Ġadapted": 8532, "Ġasp": 8533, "ĠRest": 8534, "ker": 8535, "Ġsummary": 8536, "ĠBetween": 8537, "Ġstones": 8538, "ĠNorm": 8539, "Ġevident": 8540, "EA": 8541, "hire": 8542, "ĠProcess": 8543, "ĠPortug": 8544, "advant": 8545, "ĠFarm": 8546, "Ġorange": 8547, "ospel": 8548, "Ġmovie": 8549, "Ġshore": 8550, "Ġtransmitted": 8551, "Ġequality": 8552, "ĠGener": 8553, "ĠSenate": 8554, "LC": 8555, "foot": 8556, "ols": 8557, "ĠEgyptian": 8558, "amination": 8559, "ĠCost": 8560, "ĠFil": 8561, "gien": 8562, "ĠPoly": 8563, "icking": 8564, "Ġfatigue": 8565, "Ġtargeted": 8566, "ĠWriting": 8567, "ourse": 8568, "ĠCapt": 8569, "ĠBest": 8570, "Ġdominant": 8571, "Ġscope": 8572, "Ġherb": 8573, "ĠBlood": 8574, "Ġaccord": 8575, "ĠConne": 8576, "Ġpsychology": 8577, "ceans": 8578, "Ġdetermining": 8579, "Ġkingdom": 8580, "Ġdrivers": 8581, "Ġfatal": 8582, "Ġintegration": 8583, "âĢĺ": 8584, "operative": 8585, "Ġrecycling": 8586, "Ġ120": 8587, "Ġnutritional": 8588, "anted": 8589, "ĠpH": 8590, "gener": 8591, "Ġloose": 8592, "Ġlinear": 8593, "hester": 8594, "Ġunp": 8595, "Ġsymbols": 8596, "Ġtob": 8597, "ĠWeek": 8598, "Ġmarg": 8599, "ĠSanta": 8600, "ĠMain": 8601, "ĠMove": 8602, "Ġanger": 8603, "Ġdairy": 8604, "Ġcontinuing": 8605, "Ġwars": 8606, "Ġintention": 8607, "Ġacting": 8608, "ĠInterest": 8609, "Ġremoving": 8610, "Ġreturns": 8611, "Ġcolonies": 8612, "ĠBiology": 8613, "Ġcelebrated": 8614, "asy": 8615, "Ġversus": 8616, "When": 8617, "ician": 8618, "Ġranging": 8619, "Ġproductivity": 8620, "Ġvictory": 8621, "uan": 8622, "olt": 8623, "Ġwebsites": 8624, "Ġscheme": 8625, "ĠNob": 8626, "ĠOlymp": 8627, "ĠHard": 8628, "ĠDO": 8629, "Ġdifferently": 8630, "Ġirrig": 8631, "Ġtelesc": 8632, "box": 8633, "ĠPut": 8634, "ĠHeritage": 8635, "Ġgif": 8636, "Ġverb": 8637, "'d": 8638, "Ġtip": 8639, "Ġduration": 8640, "ĠPu": 8641, "Ġdiffer": 8642, "Ġreferences": 8643, "Ġquantum": 8644, "ĠCall": 8645, "Ġattribut": 8646, "Ġsodium": 8647, "arn": 8648, "Ġactively": 8649, "Ġcotton": 8650, "ĠMuch": 8651, "Ġpersonnel": 8652, "omers": 8653, "Ġhaven": 8654, "ĠIndepend": 8655, "Ġexisted": 8656, "Ġfacilitate": 8657, "DS": 8658, "bel": 8659, "Ġtab": 8660, "ĠSecretary": 8661, "Ġengagement": 8662, "Ġoccupied": 8663, "chain": 8664, "Ġinfants": 8665, "Ġstood": 8666, "ĠMid": 8667, "Ġclock": 8668, "Ġthread": 8669, "Ġapplying": 8670, "67": 8671, "Ġmunic": 8672, "Ġdefinitely": 8673, "Ġgent": 8674, "Ġdrinks": 8675, "ĠCub": 8676, "ĠLew": 8677, "ailed": 8678, "UT": 8679, "mal": 8680, "cho": 8681, "Ġfaculty": 8682, "Ġpilot": 8683, "Go": 8684, "eath": 8685, "words": 8686, "ivestock": 8687, "NS": 8688, "erts": 8689, "Ġconverted": 8690, "Ġwatching": 8691, "agan": 8692, "Ġoccas": 8693, "Ġapparently": 8694, "Ġcouncil": 8695, "orig": 8696, "amps": 8697, "Ġcoat": 8698, "Ġgathered": 8699, "ĠBang": 8700, "Ġoxid": 8701, "uality": 8702, "ĠPlace": 8703, "mond": 8704, "Ġdeficiency": 8705, "Ġbuff": 8706, "ĠMinistry": 8707, "ĠAmazon": 8708, "ĠGall": 8709, "They": 8710, "Ġcub": 8711, "http": 8712, "Ġauton": 8713, "Ġrepresentative": 8714, "Â®": 8715, "ĠMarine": 8716, "Ġcolonial": 8717, "ĠHistorical": 8718, "ador": 8719, "ĠHence": 8720, "ĠBureau": 8721, "Ġresistant": 8722, "Ġsup": 8723, "usive": 8724, "Ġgods": 8725, "ĠRam": 8726, "nell": 8727, "Ġreaches": 8728, "print": 8729, "Ġ1989": 8730, "Ġtobacco": 8731, "Ġaging": 8732, "oto": 8733, "Ġprey": 8734, "!âĢĿ": 8735, "world": 8736, "Ġhypothesis": 8737, "59": 8738, "Ġtack": 8739, "Ġdevelops": 8740, "Ġcomputing": 8741, "Ġdiscussions": 8742, "ĠPakistan": 8743, "awa": 8744, "Ġpurchased": 8745, "Ġpione": 8746, "Ġdefault": 8747, "aine": 8748, "Ġtact": 8749, "Ġsessions": 8750, "umer": 8751, "Ġfinish": 8752, "Ġexpertise": 8753, "ĠLevel": 8754, "Ġlogical": 8755, "Ġcompost": 8756, "Ġteens": 8757, "eping": 8758, "ĠMA": 8759, "Ġatoms": 8760, "Ġcomplexity": 8761, "Ġgenome": 8762, "Ð°": 8763, "Ġlabour": 8764, "Ġseriously": 8765, "ĠUnderstanding": 8766, "Ġfrust": 8767, "ĠMoses": 8768, "Ġchocolate": 8769, "Ġengines": 8770, "ĠDaniel": 8771, "mented": 8772, "Ġ1940": 8773, "ĠHyd": 8774, "ĠEll": 8775, "Ġrecre": 8776, "Ġfet": 8777, "ĠField": 8778, "Ġchose": 8779, "Ġtransc": 8780, "ĠThird": 8781, "Ġspan": 8782, "earch": 8783, "Ġ42": 8784, "Ġsafely": 8785, "Ġsees": 8786, "ĠAndrew": 8787, "Ġdisplayed": 8788, "Ġane": 8789, "ĠRab": 8790, "Ġpollut": 8791, "green": 8792, "Ġdeploy": 8793, "unc": 8794, "Ġcooperation": 8795, "Ġpoetry": 8796, "ĠPrinc": 8797, "rox": 8798, "Ġinvolvement": 8799, "Con": 8800, "isd": 8801, "requ": 8802, "Ġwat": 8803, "Ġqualities": 8804, "Ġpeer": 8805, "Ġsensor": 8806, "Ġliterally": 8807, "eutic": 8808, "ĠAff": 8809, "ĠChem": 8810, "Ġcurve": 8811, "imp": 8812, "Ġclients": 8813, "Ġsteam": 8814, "Ġfriendly": 8815, "ĠSimilarly": 8816, ":||": 8817, "disc": 8818, "Ġresil": 8819, "Ġbalanced": 8820, "rh": 8821, "Ġul": 8822, "ifier": 8823, "Ġcontents": 8824, "rue": 8825, "Ġbarrier": 8826, "CP": 8827, "Ġcul": 8828, "Ġclothes": 8829, "Ġspoke": 8830, "ĠRelig": 8831, "Ġholiday": 8832, "Ġopinions": 8833, "Ġborrow": 8834, "ĠIce": 8835, "Ġspots": 8836, "Ġadopt": 8837, "Ġsoph": 8838, "ĠLocal": 8839, "Ġaggressive": 8840, "ĠLog": 8841, "Ġdevast": 8842, "adelph": 8843, "itting": 8844, "53": 8845, "Ġsaving": 8846, "Ġconvert": 8847, "ĠOs": 8848, "play": 8849, "Ġweigh": 8850, "Ġcann": 8851, "ĠShould": 8852, "ĠTown": 8853, "Ġcompass": 8854, "Ġclassic": 8855, "ĠClean": 8856, "Ġvolunteers": 8857, "Ġbleeding": 8858, "EO": 8859, "Ġdies": 8860, "Ġspinal": 8861, "ghan": 8862, "Ġears": 8863, "ĠSupport": 8864, "ĠSelf": 8865, "ĠRNA": 8866, "ĠES": 8867, "Ġtraits": 8868, "Ġidentical": 8869, "ĠGreece": 8870, "Ġdropped": 8871, "ĠKorean": 8872, "ĠTemple": 8873, "fast": 8874, "Ġpill": 8875, "ĠHem": 8876, "Ġsongs": 8877, "Ġthroat": 8878, "Ġvig": 8879, "Ġpermit": 8880, "Ġinvasion": 8881, "Ð¾": 8882, "Ġfunded": 8883, "Ġdating": 8884, "ĠRail": 8885, "Ġcelebrate": 8886, "Ġrealized": 8887, "press": 8888, "ĠSon": 8889, "awn": 8890, "Ġprivile": 8891, "Ġspecified": 8892, "aware": 8893, "ĠAllah": 8894, "Ġcolony": 8895, "ĠIntroduction": 8896, "Ġearthquake": 8897, "ĠLi": 8898, "Ġregime": 8899, "Ġsacred": 8900, "ĠAR": 8901, "Ġnoticed": 8902, "Ġenz": 8903, "Ġincent": 8904, "Ġestate": 8905, "Ġtrem": 8906, "Ġprayer": 8907, "Ġmammals": 8908, "ĠRather": 8909, "Ġrestoration": 8910, "Ġassembly": 8911, "ĠNutrition": 8912, "61": 8913, "CA": 8914, "ĠNear": 8915, "ĠProble": 8916, "olk": 8917, "Ġshorter": 8918, "ologically": 8919, "claim": 8920, "ĠColon": 8921, "Ġchoosing": 8922, "Ġstreams": 8923, "Ġpel": 8924, "Ġdescend": 8925, "Ġmedicines": 8926, "Ġwage": 8927, "ĠIde": 8928, "Ġbreaking": 8929, "mentation": 8930, "obile": 8931, "ĠEncyclopedia": 8932, "Ġlimitations": 8933, "Ġsug": 8934, "unning": 8935, "Ġownership": 8936, "ĠExamples": 8937, "Ġnom": 8938, "ĠEmer": 8939, "Ġacknowled": 8940, "Ġtone": 8941, "iterranean": 8942, "RNA": 8943, "lights": 8944, "Ġmature": 8945, "Ġrestore": 8946, "ĠCommons": 8947, "Ġneurons": 8948, "Ġgrades": 8949, "Ġhandling": 8950, "Ġdict": 8951, "Ġzones": 8952, "Ġbarriers": 8953, "Ġemerged": 8954, "Ġjoy": 8955, "ĠMexican": 8956, "Ġprescribed": 8957, "Ġrecording": 8958, "2010": 8959, "Ġreserved": 8960, "Ġindirect": 8961, "issance": 8962, "ĠHa": 8963, "adelphia": 8964, "reens": 8965, "Ġtom": 8966, "thod": 8967, "Ġscat": 8968, "Ġchromos": 8969, "ĠFish": 8970, "ĠMonday": 8971, "Ġenthus": 8972, "Ġpartnership": 8973, "izz": 8974, "ometric": 8975, "urrent": 8976, "onents": 8977, "Ġdil": 8978, "Ġvibr": 8979, "Ġsons": 8980, "Ġutility": 8981, "Ã±": 8982, "ĠFair": 8983, "\")": 8984, "vation": 8985, "Ġjoints": 8986, "Ġeverywhere": 8987, "Ġlock": 8988, "ĠCA": 8989, "Ġencl": 8990, "Ġtill": 8991, "ĠOS": 8992, "Ġvisits": 8993, "Cl": 8994, "Ġgift": 8995, "ĠHindu": 8996, "Ġorigins": 8997, "Ġvegetable": 8998, "Ġcontrolling": 8999, "made": 9000, "Ġwearing": 9001, "Ġtrace": 9002, "ĠTurkey": 9003, "Ġcited": 9004, "Ġmeetings": 9005, "Ġdocumented": 9006, "Ġvaries": 9007, "ĠCentury": 9008, "Ġworkshe": 9009, "Ġmaxim": 9010, "Sh": 9011, "Ġalarm": 9012, "Ġassociate": 9013, "Ġjuice": 9014, "Ġhat": 9015, "ĠImport": 9016, "Ġphilosoph": 9017, "Ġtransferred": 9018, "Ġminority": 9019, "specific": 9020, "sembly": 9021, "eries": 9022, "Ġreplacement": 9023, "GE": 9024, "ĠAk": 9025, "Ġgraduate": 9026, "ĠDictionary": 9027, "oded": 9028, "ĠDie": 9029, "ĠAdam": 9030, "ĠAction": 9031, "Ġbeach": 9032, "ĠBuddh": 9033, "2012": 9034, "Ġunlikely": 9035, "Ġplanted": 9036, "books": 9037, "Ġintegr": 9038, "icts": 9039, "Ġposts": 9040, "Ġprivacy": 9041, "inois": 9042, "ĠObama": 9043, "itchen": 9044, "Ġchurches": 9045, "Ġtension": 9046, "Ġspacecraft": 9047, "Ġcompetitive": 9048, "ĠDifferent": 9049, "Ġbuying": 9050, "Ġreflected": 9051, "Sc": 9052, "Ġsciences": 9053, "Ġneglect": 9054, "Ġfifth": 9055, "Ġtap": 9056, "Ġgast": 9057, "Ġ(\"": 9058, "Ġpaying": 9059, "Ġmeaningful": 9060, "Ġenjoyed": 9061, "Ġgly": 9062, "ĠSP": 9063, "Ġreflection": 9064, "ĠArts": 9065, "Ġrepresenting": 9066, "Ġhal": 9067, "ometer": 9068, "Ġworker": 9069, "ĠUnivers": 9070, "ĠOnt": 9071, "Ġparticle": 9072, "Ġreveals": 9073, "antine": 9074, "Ġcheap": 9075, "Ġhappiness": 9076, "Ġreadily": 9077, "enza": 9078, "Ġdevelopments": 9079, "Ġherself": 9080, "ĠArea": 9081, "ĠOrigin": 9082, "Ġmodule": 9083, "dep": 9084, "Ġbears": 9085, "Ġprox": 9086, "ĠMuslims": 9087, "Ġtongue": 9088, "uther": 9089, "outheast": 9090, "Ġuncle": 9091, "Ġimmigrants": 9092, "62": 9093, "Ġcrown": 9094, "Ġpreserved": 9095, "Ġcirculation": 9096, "Ġpace": 9097, "Ġrestaur": 9098, "ĠComputer": 9099, "olph": 9100, "ĠSqu": 9101, "ĠLine": 9102, "Ġspecialized": 9103, "ĠTrust": 9104, "Ġft": 9105, "Ġlakes": 9106, "ĠMediterranean": 9107, "Ġannually": 9108, "friend": 9109, "Ġsuit": 9110, "Ġrecip": 9111, "Ġsavings": 9112, "2013": 9113, "Ġshed": 9114, "ĠBush": 9115, "Ġdeer": 9116, "ĠThink": 9117, "Ġstrange": 9118, "Ġabsorb": 9119, "Ġrestrictions": 9120, "Ġsurprise": 9121, "Ġsuddenly": 9122, "Ġdivine": 9123, "Ġexploring": 9124, "Ġbreaks": 9125, "etary": 9126, "regon": 9127, "Ġsleeping": 9128, "uity": 9129, "Ġoils": 9130, "ĠPeace": 9131, "Ġcough": 9132, "ĠRisk": 9133, "ocated": 9134, "Ġadvances": 9135, "!!": 9136, "Ġcurrency": 9137, "Ġgardens": 9138, "Ġultimate": 9139, "ogens": 9140, "Ġdipl": 9141, "ackson": 9142, "Ġreign": 9143, "ĠSustain": 9144, "Ġattempted": 9145, "Ġelectrons": 9146, "Ġancestors": 9147, "ĠWed": 9148, "ĠGuard": 9149, "Ġ(âĢľ": 9150, "Ġsuicide": 9151, "ĠTeachers": 9152, "Ġanalyzed": 9153, "ĠAngeles": 9154, "Ġtort": 9155, "Ġvaried": 9156, "Ġpupils": 9157, "bered": 9158, "ico": 9159, "ĠWorking": 9160, "mble": 9161, "Ġclay": 9162, "Ġevolutionary": 9163, "CH": 9164, "Ġwal": 9165, "Ġpets": 9166, "ilst": 9167, "Ġunderground": 9168, "izers": 9169, "enda": 9170, "Ġrefused": 9171, "ĠPain": 9172, "Ġaccomplish": 9173, "assium": 9174, "ĠSelect": 9175, "bury": 9176, "swe": 9177, "ĠNOT": 9178, "Ġcouldn": 9179, "Ġdiscipline": 9180, "Ġrequiring": 9181, "Ġburden": 9182, "Ġconversion": 9183, "otypes": 9184, "ocial": 9185, "ĠUV": 9186, "Ġsolving": 9187, "But": 9188, "Ġash": 9189, "ĠTradition": 9190, "Ġviral": 9191, "Ġpaintings": 9192, "Ġsulf": 9193, "ocity": 9194, "Ġshr": 9195, "Ġgrad": 9196, "----": 9197, "2011": 9198, "Ġsister": 9199, "through": 9200, "ĠNO": 9201, "Ġsurgical": 9202, "ĠAncient": 9203, "Ġsuspect": 9204, "shaped": 9205, "Ġpairs": 9206, "acles": 9207, "Ġworkplace": 9208, "Ġprovision": 9209, "Ġoverview": 9210, "Ġprofound": 9211, "Ġpenet": 9212, "asm": 9213, "section": 9214, "Ġelections": 9215, "Ġsurveys": 9216, "Ġhormones": 9217, "Ġarise": 9218, "ĠMaster": 9219, "Ġdesignated": 9220, "Ġaddresses": 9221, "Ġsubsid": 9222, "Ġspecialist": 9223, "Ġgum": 9224, "Ġdemocratic": 9225, "Ġoutbreak": 9226, "ĠProduct": 9227, "irable": 9228, "Ġaccurately": 9229, "Ġpractition": 9230, "rons": 9231, "Ġbeneath": 9232, "Ġeleph": 9233, "Ġsale": 9234, "ĠShort": 9235, "MA": 9236, "western": 9237, "Ġminimal": 9238, "Ġlighting": 9239, "Ġruled": 9240, "52": 9241, "eras": 9242, "ĠTool": 9243, "ĠDoc": 9244, "Ġstrengthen": 9245, "cut": 9246, "oons": 9247, "Ġpert": 9248, "ĠContact": 9249, "lock": 9250, "ĠLuc": 9251, "ĠImage": 9252, "Ġconsequence": 9253, "Ġenforcement": 9254, "ĠOcc": 9255, "Ġinsights": 9256, "Ġchicken": 9257, "Ġtends": 9258, "ifer": 9259, "ĠFull": 9260, "ĠFDA": 9261, "Ġmanual": 9262, "Ġbasically": 9263, "ĠPhiladelphia": 9264, "oz": 9265, "Ġol": 9266, "ĠAntar": 9267, "iano": 9268, "Ġpossibilities": 9269, "Ġauto": 9270, "ĠKent": 9271, "Ġcalculate": 9272, "Ġestablishing": 9273, "Ġapplies": 9274, "Ġcable": 9275, "ĠDam": 9276, "urable": 9277, "Ġdementia": 9278, "Ġalign": 9279, "Ġforecast": 9280, "ĠFer": 9281, "Ġdistinguish": 9282, "Ġcandidates": 9283, "gments": 9284, "ĠJack": 9285, "ali": 9286, "ĠMind": 9287, "Ġattitudes": 9288, "ÙĨ": 9289, "ĠPhilos": 9290, "Ġlegit": 9291, "ĠMicrosoft": 9292, "Ġprime": 9293, "apped": 9294, "Ġcorporate": 9295, "86": 9296, "ĠSus": 9297, "ĠText": 9298, "Ġwise": 9299, "issipp": 9300, "Ġinvasive": 9301, "ĠTeaching": 9302, "ĠSchools": 9303, "Ġtotally": 9304, "dd": 9305, "Ġbought": 9306, "opl": 9307, "ģĦ": 9308, "oked": 9309, "ĠMatthew": 9310, "Ġreproductive": 9311, "ĠGarden": 9312, "ĠAltern": 9313, "Ġreasoning": 9314, "Ġbee": 9315, "ĠProm": 9316, "ĠClinical": 9317, "amil": 9318, "ĠOregon": 9319, "Ġcream": 9320, "Ġsending": 9321, "Ġdistinction": 9322, "Ġpowder": 9323, "iblical": 9324, "Ðµ": 9325, "Ġcompos": 9326, "ĠIndividual": 9327, "Ġpenal": 9328, "neum": 9329, "ĠMap": 9330, "rip": 9331, "ouses": 9332, "Ġregistered": 9333, "Ġconsent": 9334, "Ġpasses": 9335, "Ġmorph": 9336, "Ġillnesses": 9337, "ĠIllinois": 9338, "Ġinhabitants": 9339, "ĠTyp": 9340, "ĠIndones": 9341, "imm": 9342, "ĠRen": 9343, "ĠHit": 9344, "Ġmemor": 9345, "Ġabsolutely": 9346, "Ġacceptable": 9347, "Ġscenario": 9348, "Ġ?": 9349, "Ġpainted": 9350, "Ġpleasure": 9351, "ĠCharl": 9352, "exp": 9353, "Ġinfluences": 9354, "quiry": 9355, "Ġspatial": 9356, ".),": 9357, "uled": 9358, "Ġbias": 9359, "Ġputs": 9360, "isations": 9361, "ricks": 9362, "Ġproductive": 9363, "Ġsurrounded": 9364, "97": 9365, "atus": 9366, "Ġdisadvant": 9367, "aven": 9368, "Ġswelling": 9369, "inth": 9370, "rose": 9371, "Ġdistant": 9372, "Ġentitled": 9373, "Ġcellular": 9374, "Ġpreparing": 9375, "host": 9376, "ĠUnt": 9377, "Ġrestricted": 9378, "mega": 9379, "Ġvillages": 9380, "Ġempire": 9381, "orters": 9382, "Ġhier": 9383, "Ġinstances": 9384, "Ġbroke": 9385, "Ġscholar": 9386, "93": 9387, "Ġham": 9388, "Ġnuts": 9389, "Ġperfectly": 9390, "Ġscr": 9391, "Ġfilms": 9392, "Ġcycles": 9393, "regular": 9394, "54": 9395, "after": 9396, "Ġlingu": 9397, "ĠPope": 9398, "Ġmanuscript": 9399, "Ġattractive": 9400, "Ġjudgment": 9401, "quality": 9402, "fly": 9403, "Ġinev": 9404, "Ġrooms": 9405, "Ġpackage": 9406, "Ġamino": 9407, "ĠCorpor": 9408, "Ġinvention": 9409, "ĠApplic": 9410, "ĠTit": 9411, "ĠNic": 9412, "Ġcreativity": 9413, "Ġlivestock": 9414, "Ġmanagers": 9415, "Ġassignment": 9416, "ĠTurn": 9417, "Ġdisag": 9418, "ĠOthers": 9419, "ĠBM": 9420, "ĠDiabetes": 9421, "Ġminimize": 9422, "Ġabol": 9423, "ĠPrim": 9424, "Ġsediment": 9425, "Ġ~": 9426, "ĠCreek": 9427, "Ġaddressing": 9428, "Ġmagnitude": 9429, "Ġcertific": 9430, "ref": 9431, "Ġimpair": 9432, "Ġlun": 9433, "ĠMP": 9434, "Ġpredicted": 9435, "Ġincidence": 9436, "Ġarc": 9437, "Ġinitiatives": 9438, "à¥": 9439, "esthetic": 9440, "Ġconfusion": 9441, "Ġtranslated": 9442, "Ġdisturb": 9443, "vi": 9444, "Ġglobe": 9445, "2006": 9446, "UL": 9447, "Ġwing": 9448, "cin": 9449, "Ġscales": 9450, "Ġrecall": 9451, "Ġprevalence": 9452, "ulates": 9453, "rub": 9454, "Ġcontributing": 9455, "Ġneurolog": 9456, "Ġprecisely": 9457, "Ġlanding": 9458, "Ġdimensions": 9459, "ĠJackson": 9460, "Ġlibraries": 9461, "ĠFed": 9462, "Ġabundance": 9463, "function": 9464, "Ġoste": 9465, "ologic": 9466, "Ġremem": 9467, "Ġcuts": 9468, "ĠAssessment": 9469, "Ġ44": 9470, "ĠMississipp": 9471, "ught": 9472, "Ġdimin": 9473, "ĠMaking": 9474, "ĠCS": 9475, "Ġclouds": 9476, "elect": 9477, "Ġseal": 9478, "2008": 9479, "Ġallergic": 9480, "uis": 9481, "Ġsubsc": 9482, "Ġending": 9483, "Ġalgorithm": 9484, "ĠPoint": 9485, "Ġrod": 9486, "Ġoccasionally": 9487, "Ġwings": 9488, "Ġranges": 9489, "Ġwooden": 9490, "rait": 9491, "ideo": 9492, "Ġmerch": 9493, "Ġkilometers": 9494, "RS": 9495, "ĠBern": 9496, "Ġpreserv": 9497, "Ġcoron": 9498, "ĠScientific": 9499, "Ġperf": 9500, "ĠProper": 9501, "Ġswimming": 9502, "Ġmetabolism": 9503, "power": 9504, "Ġoutdoor": 9505, "Ġion": 9506, "rium": 9507, "ĠAsh": 9508, "ictions": 9509, "Ġembed": 9510, "ĠStation": 9511, "ĠApple": 9512, "Ġcandidate": 9513, "Ġaside": 9514, ".:": 9515, "ĠNeg": 9516, "Ġdeposits": 9517, "oline": 9518, "sk": 9519, "Ġreef": 9520, "ĠAh": 9521, "ateral": 9522, "Ġattributed": 9523, "Ġimagination": 9524, "Ġtag": 9525, "Ġlob": 9526, "Ġ1988": 9527, "DL": 9528, "Ġ600": 9529, "Ġintr": 9530, "pdf": 9531, "Ġrelate": 9532, "Ġfolk": 9533, "bow": 9534, "ĠUlt": 9535, "Ġposted": 9536, "Ġprecip": 9537, "nesota": 9538, "Ġpuzz": 9539, "anz": 9540, "Ġcalm": 9541, "Ġmail": 9542, "ĠRedu": 9543, "ĠIndigenous": 9544, "See": 9545, "Ġmedieval": 9546, "ĠBuddha": 9547, "sor": 9548, "orus": 9549, "Ġenzyme": 9550, "Ġblank": 9551, "ĠReal": 9552, "Ġvarying": 9553, "ĠPhD": 9554, "Ġchannels": 9555, "Ġrevers": 9556, "astics": 9557, "Ġerosion": 9558, "Ġalumin": 9559, "Ġwash": 9560, "Ġreflects": 9561, "Ġsurprised": 9562, "ĠBol": 9563, "abling": 9564, "Ġregulate": 9565, "esium": 9566, "Ġhopes": 9567, "oler": 9568, "ĠJr": 9569, "aternal": 9570, "Ġendangered": 9571, "ĠStudent": 9572, "Ġhonest": 9573, "Ġdramatically": 9574, "Ġdigestive": 9575, "best": 9576, "Ġmistakes": 9577, "OD": 9578, "ighth": 9579, "pectives": 9580, "Ġstatistical": 9581, "Ġsurprising": 9582, "Ġthemes": 9583, "raine": 9584, "Ġpersu": 9585, "Ġhumidity": 9586, "Ġsoils": 9587, "Med": 9588, "Ġdish": 9589, "Ġcitizen": 9590, "ĠStandards": 9591, "Ġgrammar": 9592, "Ġtomat": 9593, "Ġseparation": 9594, "auses": 9595, "ĠBrain": 9596, "mail": 9597, "oca": 9598, "Ġ250": 9599, "ĠAssembly": 9600, "Ġexclud": 9601, "Ġsimultaneously": 9602, "Ġhybrid": 9603, "Ġhygien": 9604, "eem": 9605, "aque": 9606, "pos": 9607, "ceptions": 9608, "Ġextens": 9609, "Ġoperated": 9610, "Ġprisoners": 9611, "BM": 9612, "elly": 9613, "Ġcombine": 9614, "ĠInteg": 9615, "Ġalternatives": 9616, "ĠNevertheless": 9617, "han": 9618, "Ġsusceptible": 9619, "ais": 9620, "ĠMrs": 9621, "2009": 9622, "Ġatmospheric": 9623, "Ġbags": 9624, "Ġnoun": 9625, "Ġquantities": 9626, "Ġadolescents": 9627, "terior": 9628, "plate": 9629, "Ġperpet": 9630, "Ġseverity": 9631, "aved": 9632, "Ġtransplant": 9633, "Ġmilit": 9634, "ethe": 9635, "worth": 9636, "Ġthirty": 9637, "ĠTheory": 9638, "Ġproposal": 9639, "Ġcopies": 9640, "Ġrobust": 9641, "Ġefficiently": 9642, "Ġ64": 9643, "Ġextraord": 9644, "Ġelevated": 9645, "Ġfascinating": 9646, "Ġsatisfact": 9647, "ĠHig": 9648, "Ġneural": 9649, "Ġresemb": 9650, "ĠIsa": 9651, "Ġpayment": 9652, "ĠWilson": 9653, "Ġhospitals": 9654, "Ġspons": 9655, "Ġmotivation": 9656, "Ġtumors": 9657, "Ġprosper": 9658, "Ġencounter": 9659, "Ġinherent": 9660, "Ġcodes": 9661, "ĠHot": 9662, "Ġsystematic": 9663, "ĠQuestions": 9664, "Ġtheoretical": 9665, "ji": 9666, "Ġcave": 9667, "Ġvisiting": 9668, "Ġcrimes": 9669, "Ġdynamics": 9670, "ropol": 9671, "ĠMeanwhile": 9672, "Ġpandemic": 9673, "Ġdiscipl": 9674, "2007": 9675, "Ġdiets": 9676, "Ġrepeat": 9677, "inet": 9678, "ĠStory": 9679, "Ġengineer": 9680, "ĠCorps": 9681, "Ġelementary": 9682, "Ġflexibility": 9683, "ATION": 9684, "ĠBelow": 9685, "ĠOntario": 9686, "oves": 9687, "ĠAfghan": 9688, "Ġbonds": 9689, "Ġcosm": 9690, "ĠMississippi": 9691, "Ġcollections": 9692, "ĠPractice": 9693, "Ġelderly": 9694, "BI": 9695, "Ġfavour": 9696, "Ġbottle": 9697, "On": 9698, "thur": 9699, "Ġ1000": 9700, "Ġschem": 9701, "emies": 9702, "ĠUnit": 9703, "92": 9704, "Ġlegend": 9705, "engers": 9706, "Ġcraft": 9707, "page": 9708, "Ġinvented": 9709, "Ġholy": 9710, "urd": 9711, "ĠEmperor": 9712, "Ġsurvived": 9713, "Ġathletes": 9714, "No": 9715, "Ġhurt": 9716, "ĠMinnesota": 9717, ".||": 9718, "Ġlecture": 9719, "angel": 9720, "ĠVolume": 9721, "enh": 9722, "isted": 9723, "Ġdevelopmental": 9724, "ayer": 9725, "mental": 9726, "Ġenzymes": 9727, "Ġoptimal": 9728, "ĠTrade": 9729, "ĠCDC": 9730, "Ġmetabolic": 9731, "Ġho": 9732, "Ġdiarr": 9733, "rowth": 9734, "ĠReserve": 9735, "ĠTwitter": 9736, "ĠJefferson": 9737, "Ġneighb": 9738, "Ġjurisd": 9739, "duction": 9740, "Ġrevenue": 9741, "Ġdischarge": 9742, "Ġgate": 9743, "Ġregister": 9744, "Ġrelating": 9745, "Ġcamps": 9746, "Ġoceans": 9747, "Ġalert": 9748, "elihood": 9749, "vae": 9750, "ĠTar": 9751, "Ġrough": 9752, "Ġsummar": 9753, "Ġexpanding": 9754, "ivities": 9755, "Ġadoption": 9756, "Ġsuggesting": 9757, "Ġencouraging": 9758, "Ġunem": 9759, "omed": 9760, "olves": 9761, "urse": 9762, "Ġsemi": 9763, "âģĦ": 9764, "ugs": 9765, "idae": 9766, "Ġbrothers": 9767, "Ġfan": 9768, "ĠSC": 9769, "Ġ43": 9770, "Ġmyster": 9771, "Ġwinds": 9772, "Ġprevents": 9773, "Ġdoors": 9774, "phal": 9775, "Ġresponsibilities": 9776, "Ġrainfall": 9777, "acle": 9778, "Ġ85": 9779, "ĠAud": 9780, "Ġamongst": 9781, "Ġoptical": 9782, "ÙĴ": 9783, "Ġinch": 9784, "ashed": 9785, "ĠWales": 9786, "ĠAlaska": 9787, "Ġcontainers": 9788, "omous": 9789, "rac": 9790, "Ġboundary": 9791, "Ġadministrative": 9792, "96": 9793, "Ġmask": 9794, "oting": 9795, "ĠMother": 9796, "Ġtreaty": 9797, "ĠMountain": 9798, "bage": 9799, "ouri": 9800, "ĠGDP": 9801, "Ġsymptom": 9802, "Ġcrack": 9803, "ĠGovernor": 9804, "Ġmira": 9805, "ĠAriz": 9806, "ĠNeed": 9807, "ĠCarib": 9808, "Ġanalyses": 9809, "ĠBell": 9810, "Ġconflicts": 9811, "Ġrefugees": 9812, "ubble": 9813, "Ġphones": 9814, "Ġentrance": 9815, "ĠExerc": 9816, "Ġdescribing": 9817, "Ġincorporated": 9818, "Ġallergies": 9819, "ĠCulture": 9820, "Ġthank": 9821, "Ġgover": 9822, "Ġdebris": 9823, "efficient": 9824, "ĠPaper": 9825, "ffe": 9826, "Ġrays": 9827, "Ġduties": 9828, "Ġbull": 9829, "Ġemployee": 9830, "Ġbell": 9831, "Ġapproval": 9832, "Ġmissions": 9833, "ivation": 9834, "oths": 9835, "Ġtendency": 9836, "Ġregulatory": 9837, "ĠJon": 9838, "ĠWilliams": 9839, "Ġ2022": 9840, "Ġsheep": 9841, "ĠBon": 9842, "Ġmagazine": 9843, "ĠâĨĳ": 9844, "ĠAnsw": 9845, "Ġwidth": 9846, "zone": 9847, "Ġcontinent": 9848, "profit": 9849, "Ġbullying": 9850, "Ġinstallation": 9851, "Ġfraction": 9852, "Ġtrail": 9853, "Ġtough": 9854, "Ġgest": 9855, "ĠWalk": 9856, "ĠFac": 9857, "ĠScript": 9858, "Ġmemories": 9859, "Ġ1987": 9860, "Ġlicense": 9861, "Ġarthritis": 9862, "Ġdefinitions": 9863, "Ġhung": 9864, "Ġplates": 9865, "Ġconstrain": 9866, "Ġisolation": 9867, "300": 9868, "ĠLED": 9869, "Ġcollecting": 9870, "also": 9871, "Ġdried": 9872, "ĠTalk": 9873, "Ġprovisions": 9874, "Ġexport": 9875, "Ġcaps": 9876, "prene": 9877, "Ġconclusions": 9878, "owered": 9879, "Figure": 9880, "Ġwhenever": 9881, "Ġtrading": 9882, "Ġstere": 9883, "Ġexceed": 9884, "Ġexcav": 9885, "Ġknee": 9886, "Ùı": 9887, "uro": 9888, "Ġ1986": 9889, "Ġspeaker": 9890, "inch": 9891, "Ġpose": 9892, "redit": 9893, "Ġminister": 9894, "Ġabsorbed": 9895, "ĠDyn": 9896, "Ġliberal": 9897, "Ġ%": 9898, "thood": 9899, "Ġvom": 9900, "Ġtower": 9901, "ĠNumber": 9902, "Ġpeers": 9903, "oving": 9904, "rible": 9905, "Ġgrams": 9906, "Ġdivide": 9907, "Ġabundant": 9908, "reshold": 9909, "Ġfitness": 9910, "Ġoffices": 9911, "Ġexhibition": 9912, "Ġphenomena": 9913, "reprene": 9914, "ĠSix": 9915, "Ġassault": 9916, "Ġceleb": 9917, "Ġorientation": 9918, "Ġdiagram": 9919, "Ġpesticides": 9920, "OP": 9921, "umns": 9922, "Ġpassword": 9923, "Ġconsisting": 9924, "Ġabandoned": 9925, "ĠCit": 9926, "Ġpartly": 9927, "isticated": 9928, "Ġcharges": 9929, "Ġcalendar": 9930, "ĠTay": 9931, "ĠTel": 9932, "ĠTraining": 9933, "Ġtwelve": 9934, "Ġburned": 9935, "illance": 9936, "Ġfiction": 9937, "stru": 9938, "51": 9939, "itic": 9940, "Ġfibers": 9941, "Ġlikelihood": 9942, "Ġsegment": 9943, "eling": 9944, "Ġpopularity": 9945, "Ġthyroid": 9946, "Os": 9947, "ĠClub": 9948, "Ġbusy": 9949, "rades": 9950, "Ġchamber": 9951, "Ġanticip": 9952, "57": 9953, "Ġmile": 9954, "Ġreceives": 9955, "Ġguarantee": 9956, "ĠTenn": 9957, "ĠFuture": 9958, ",'": 9959, "ĠSn": 9960, "Ġconfident": 9961, "Ġofficially": 9962, "Ġconsistently": 9963, "Ġbrains": 9964, "otion": 9965, "Ġster": 9966, "Ġarrival": 9967, "ĠSud": 9968, "ĠMes": 9969, "ĠFa": 9970, "Ġabsorption": 9971, "athan": 9972, "QL": 9973, "ĠCook": 9974, "Ġargues": 9975, "Ġerect": 9976, "Ġdisk": 9977, "ĠPriv": 9978, "Ġspreading": 9979, "Ġweaken": 9980, "ĠAnne": 9981, "Ġvalley": 9982, "Ġsuggestions": 9983, "Ġethics": 9984, "ĠCase": 9985, "FT": 9986, "nedy": 9987, "azz": 9988, "ĠPDF": 9989, "Ġcourage": 9990, "Ġfant": 9991, "Ġalongside": 9992, "Ġmurder": 9993, "sub": 9994, "ĠON": 9995, "Ġincorporate": 9996, "Ġtolerance": 9997, "arded": 9998, "Ġ41": 9999, "Ġrepresentatives": 10000, "Ġeaten": 10001, "itate": 10002, "Ġpale": 10003, "Ġglob": 10004, "enter": 10005, "Ġcontamination": 10006, "ĠHitler": 10007, "Ġstabil": 10008, "Ġaltered": 10009, "Ġfluor": 10010, "Ġaffairs": 10011, "ĠOrder": 10012, "Ġsacrifice": 10013, "Ġawarded": 10014, "nia": 10015, "imic": 10016, "ĠObject": 10017, "87": 10018, "Ġstrengthe": 10019, "sters": 10020, "struction": 10021, "ĠLiving": 10022, "Ġcrypt": 10023, "ceeding": 10024, "Ġweekly": 10025, "Ġadjacent": 10026, "Ġnodes": 10027, "ĠHon": 10028, "Ġsectors": 10029, "ĠLewis": 10030, "iy": 10031, "Ġprol": 10032, "ĠSpe": 10033, "imensional": 10034, "Ġvice": 10035, "ĠMarsh": 10036, "Be": 10037, "ĠBesides": 10038, "Ġsew": 10039, "Ġshoes": 10040, "agnetic": 10041, "Ġhealthier": 10042, "Ġclassification": 10043, "ĠOil": 10044, "ois": 10045, "ĠTree": 10046, "Ġretail": 10047, "Ġsalmon": 10048, "Ġcontaminated": 10049, "iders": 10050, "ĠHan": 10051, "Ġplasma": 10052, "ĠJim": 10053, "Ġcontrad": 10054, "ĠAnimal": 10055, "duate": 10056, "ĠKn": 10057, "Ġreputation": 10058, "ĠEnter": 10059, "ĠWin": 10060, "ĠGre": 10061, "Ġspine": 10062, "date": 10063, "ĠParents": 10064, "ermat": 10065, "ĠHom": 10066, "ĠNE": 10067, "Ġevaluated": 10068, "Ġhol": 10069, "Ġtransformation": 10070, "ori": 10071, "Ġattended": 10072, "Ġflavor": 10073, "iative": 10074, "Ġrepet": 10075, "Ġphysicians": 10076, "ĠJersey": 10077, "ĠJo": 10078, "ĠFive": 10079, "Ġorganism": 10080, "To": 10081, "Ġwelcome": 10082, "Ġselling": 10083, "nea": 10084, "ĠCertain": 10085, "bul": 10086, "Ġachieving": 10087, "Ġstruck": 10088, "Ġalgae": 10089, "Ġdentist": 10090, "ĠSleep": 10091, "Ġvine": 10092, "Ġverte": 10093, "Ġtherapeutic": 10094, "Ġcampus": 10095, "Ġdoses": 10096, "itzer": 10097, "onsin": 10098, "Ġ978": 10099, "Ġconsuming": 10100, "Ġbroader": 10101, "Ġseasonal": 10102, "Ġreh": 10103, "ĠEvent": 10104, "ĠNum": 10105, "rypt": 10106, "da": 10107, "step": 10108, "ĠAz": 10109, "ĠRay": 10110, "Ġpartially": 10111, "Ġloud": 10112, "Ġproducers": 10113, "ĠExec": 10114, "Ġtanks": 10115, "Ġproud": 10116, "ĠWW": 10117, "istically": 10118, "Ġsomewhere": 10119, "Ġretain": 10120, "ĠTib": 10121, "Ġcanal": 10122, "Ġdevelopers": 10123, "Ġdispers": 10124, "ĠArizona": 10125, "ĠWHO": 10126, "isconsin": 10127, "Ġinjured": 10128, "ĠKennedy": 10129, "Ġvelocity": 10130, "Ġdying": 10131, "Ġtherapies": 10132, "Ġsynthetic": 10133, "Ġpod": 10134, "ĠBh": 10135, "Ġspeakers": 10136, "ika": 10137, "Ġnumer": 10138, "Ġpest": 10139, "Ġdivers": 10140, "ĠHop": 10141, "Ġcivilization": 10142, "necess": 10143, "All": 10144, "ĠNG": 10145, "dess": 10146, "aning": 10147, "ĠNation": 10148, "Ġinfin": 10149, "compass": 10150, "Ġthrow": 10151, "ieth": 10152, "Ġassociations": 10153, "law": 10154, "Ġprolong": 10155, "Ġdeliber": 10156, "Ġpor": 10157, "Ġshade": 10158, "Ġfingers": 10159, "yes": 10160, "Ġsubmit": 10161, "Ġcyl": 10162, "Ġcomplement": 10163, "ĠSem": 10164, "ĠJones": 10165, "Ġutilized": 10166, "igm": 10167, "orer": 10168, "ĠNY": 10169, "ĠOpp": 10170, "Ġgrace": 10171, "ĠBuddhist": 10172, "Ġmunicipal": 10173, "Ġpediatric": 10174, "ctors": 10175, "ĠHu": 10176, "iously": 10177, "Ġacquire": 10178, "Ġhorizontal": 10179, "Ġappreciate": 10180, "Ġsurviv": 10181, "Ġplacing": 10182, "rics": 10183, "ĠConc": 10184, "Ġplatforms": 10185, "Ġnursing": 10186, "ques": 10187, "ructive": 10188, "94": 10189, "ĠMissouri": 10190, "Ġbron": 10191, "Ġvalve": 10192, "ĠFig": 10193, "Ġpartial": 10194, "ĠArm": 10195, "Ġdiagnostic": 10196, "iosity": 10197, "ĠIssue": 10198, "Ĥ¬": 10199, "Ġparks": 10200, "Ġcollapse": 10201, "ĠThurs": 10202, "Ġedges": 10203, "ĠStephen": 10204, "Ġcluster": 10205, "pany": 10206, "ĠGermans": 10207, "Ġenhanced": 10208, "ĠMathemat": 10209, "di": 10210, "Ġpatent": 10211, "Ġstretch": 10212, "Ġirrigation": 10213, "arks": 10214, "Ġsovere": 10215, "ĠBarb": 10216, "healthy": 10217, "ĠBio": 10218, "Ġincom": 10219, "Ġsequences": 10220, "800": 10221, "Ġkitchen": 10222, "Ġcounties": 10223, "Ġimproves": 10224, "Ind": 10225, "ĠCold": 10226, "ĠPoland": 10227, "Ġinspiration": 10228, "ĠDemocratic": 10229, "ĠCreate": 10230, "Ġconvenient": 10231, "Ġonset": 10232, "Ġcheese": 10233, "Ġpunishment": 10234, "raid": 10235, "Ġdraft": 10236, "Ġattacked": 10237, "Ġfles": 10238, "ctu": 10239, "Ġconnecting": 10240, "Ġattributes": 10241, "cular": 10242, "eller": 10243, "ĠLarge": 10244, "Ġcig": 10245, "Ġnort": 10246, "Ġmolecule": 10247, "Ġindependently": 10248, "Ġtied": 10249, "ĠSab": 10250, "ĠHas": 10251, "author": 10252, "pert": 10253, "Ġforever": 10254, "Ġinfectious": 10255, "2000": 10256, "ĠMarc": 10257, "Ġindoor": 10258, "ĠEnc": 10259, "Ġeducated": 10260, "Ġstrains": 10261, "Ġexch": 10262, "ĠPatients": 10263, "Ġworkshop": 10264, "Pl": 10265, "Ġbits": 10266, "iances": 10267, "Ġsubsequently": 10268, "Ġprotest": 10269, "Ġspeeds": 10270, "Ġsophisticated": 10271, "91": 10272, "ĠBehavior": 10273, "ĠCaribbean": 10274, "you": 10275, "ĠHo": 10276, "Ġeconomics": 10277, "ĠImper": 10278, "Ġexpressions": 10279, "isons": 10280, "Ġpredomin": 10281, "aned": 10282, "oning": 10283, "Ġfirms": 10284, "Ġcarries": 10285, "ĠKansas": 10286, "Ġaccounting": 10287, "Ġassessments": 10288, "ĠBenef": 10289, "Ġ1900": 10290, "plex": 10291, "Ġvector": 10292, "ĠSav": 10293, "Ġreturning": 10294, "ĠPR": 10295, "Ġaccidents": 10296, "Ġfeather": 10297, "Ġsocio": 10298, "Ġtribe": 10299, "Ġintegrity": 10300, "Ġpermitted": 10301, "III": 10302, "Ġunexpected": 10303, "ĠName": 10304, "Ġoccupation": 10305, "yard": 10306, "Ġspark": 10307, "ĠThank": 10308, "Ġreviewed": 10309, "rust": 10310, "Ġborders": 10311, "ĠTues": 10312, "ĠCR": 10313, "Ġanthrop": 10314, "Ġparticipating": 10315, "Ġfault": 10316, "jud": 10317, "Ġprevented": 10318, "Ġavoiding": 10319, "Ġimplementing": 10320, "ĠBerlin": 10321, "Ġrender": 10322, "ĠEnt": 10323, "imen": 10324, "ĠWisconsin": 10325, "Ġcameras": 10326, "isting": 10327, "Ġavoided": 10328, "Ġsoy": 10329, "Ġfinance": 10330, "Ġsucceeded": 10331, "ãģ": 10332, "erb": 10333, "ĠFle": 10334, "Ġrefrig": 10335, "Ġdiver": 10336, "Ġpursue": 10337, "Ġfertilizer": 10338, "natural": 10339, "worm": 10340, "Ġpine": 10341, "ĠChall": 10342, "Ġconfused": 10343, "Ġloop": 10344, "Ġ1945": 10345, "ĠUk": 10346, "Ġsensory": 10347, "ĠDavis": 10348, "ulsion": 10349, "ĠDarwin": 10350, "fold": 10351, "utical": 10352, "ĠCond": 10353, "formed": 10354, "Ġpredators": 10355, "2005": 10356, "ĠUrban": 10357, "quarters": 10358, "Ġrent": 10359, "ĠIron": 10360, "Ġrear": 10361, "Ġhistorians": 10362, "xic": 10363, "Ġlasting": 10364, "ĠStatistics": 10365, "Ġupl": 10366, "Ġshares": 10367, "economic": 10368, "Ġtracks": 10369, "Ġcrystal": 10370, "Ġcontrary": 10371, "Ġpreservation": 10372, "Ġindicating": 10373, "Ġsettlers": 10374, "Ġcarbohydrates": 10375, "ĠUntil": 10376, "osaur": 10377, "ĠDaily": 10378, "ĠNether": 10379, "Ġconstitutional": 10380, "wa": 10381, "Ġbroadcast": 10382, "TER": 10383, "Ġvag": 10384, "Ġequipped": 10385, "Ġgentle": 10386, "Ġharsh": 10387, "flies": 10388, "Ġgerm": 10389, "Ġwashing": 10390, "oints": 10391, "Ġdrives": 10392, "ĠAvailable": 10393, "ĠFlu": 10394, "Ġhills": 10395, "Ġbeet": 10396, "ĠCarbon": 10397, "Ġmutations": 10398, "Ġresidential": 10399, "Ġirregular": 10400, "Ġauthentic": 10401, "Ġfreely": 10402, "obic": 10403, "ussion": 10404, "iotic": 10405, "iating": 10406, "run": 10407, "Ġobviously": 10408, "vy": 10409, "otten": 10410, "Ġdevoted": 10411, "Ġalgorithms": 10412, "inery": 10413, "Ġbearing": 10414, "Ġvaccination": 10415, "Ġroutes": 10416, "Ġaccomplished": 10417, "ĠChap": 10418, "ĠBegin": 10419, "Ġaggreg": 10420, "ĠCurrently": 10421, "Ġbinding": 10422, "ema": 10423, "Ġworn": 10424, "Ġappointment": 10425, "Ġà¤": 10426, "Ġwake": 10427, "Ġinvestments": 10428, "Ġshelter": 10429, "Ġrib": 10430, "adequ": 10431, "uclear": 10432, "Ġwireless": 10433, "Ġrejected": 10434, "Ġallergy": 10435, "Ġappet": 10436, "Ġsenses": 10437, "ĠRomans": 10438, "about": 10439, "Ġdiscom": 10440, "ĠBru": 10441, "ĠDeath": 10442, "Ġarrive": 10443, "UC": 10444, "Ġbite": 10445, "ĠPL": 10446, "Our": 10447, "Ġpotassium": 10448, "Ġmobility": 10449, "ĠDefin": 10450, "ĠBasic": 10451, "Ġthoroughly": 10452, "iac": 10453, "role": 10454, "Ġthreshold": 10455, "aping": 10456, "Ġcircular": 10457, "84": 10458, "cled": 10459, "isition": 10460, "etically": 10461, "ĠHung": 10462, "Ġartistic": 10463, "grade": 10464, "ĠChemical": 10465, "Ġintermedi": 10466, "Ġoperational": 10467, "Ġelabor": 10468, "ĠHispan": 10469, "ĠPhoto": 10470, "Ġmuc": 10471, "ĠDate": 10472, "ĠChan": 10473, "chnology": 10474, "ĠArabic": 10475, "Ġyes": 10476, "arten": 10477, "Ġemployers": 10478, "Ð¸": 10479, "Ġmalaria": 10480, "Î±": 10481, "atoes": 10482, "ĠChronic": 10483, "Ġmeditation": 10484, "Ġ800": 10485, "original": 10486, "ĠJava": 10487, "Ġ46": 10488, "Ġsampling": 10489, "Ġaxis": 10490, "ĠNazi": 10491, "cal": 10492, "arios": 10493, "ĠFlow": 10494, "ela": 10495, "ĠJun": 10496, "Ġcolored": 10497, "Ġblo": 10498, "Ġlarvae": 10499, "Ġextinction": 10500, "ĠCenters": 10501, "Ġassistant": 10502, "Ġcolumns": 10503, "Ġearned": 10504, "Ġresolve": 10505, "velength": 10506, "Ġtraditionally": 10507, "Ġdesigning": 10508, "Ġconcentrated": 10509, "emor": 10510, "ĠMaryland": 10511, "Ġdesk": 10512, "gged": 10513, "Ġcrust": 10514, "alog": 10515, "Ġattain": 10516, "Ġfounder": 10517, "ĠSac": 10518, "ĠSep": 10519, "Ġimpressive": 10520, "ĠCN": 10521, "Ġatomic": 10522, "ĠNa": 10523, "agle": 10524, "Ġkeys": 10525, "atories": 10526, "Ġpublications": 10527, "Ġlabels": 10528, "Ġreviews": 10529, "income": 10530, "ĠFrancis": 10531, "ĠNap": 10532, "Ġtraveling": 10533, "Ġinflation": 10534, "Ġgray": 10535, "Ġrebu": 10536, "Ġdece": 10537, "insula": 10538, "ĠPython": 10539, "gregation": 10540, "Ġexcited": 10541, "PR": 10542, "ĠPresent": 10543, "Ġfactory": 10544, "ĠCarl": 10545, "Ġdialogue": 10546, "Ġstems": 10547, "asses": 10548, "ĠPhysics": 10549, "Ġhomework": 10550, "Ġsituated": 10551, "Ġstruggling": 10552, "Ġdistinguished": 10553, "ĠDal": 10554, "Ġvon": 10555, "Ġintra": 10556, "Ġhide": 10557, "ĠMong": 10558, "ĠPA": 10559, "Ġenlar": 10560, "Ġimplies": 10561, "verages": 10562, "Ġparliament": 10563, "Ġgran": 10564, "Ġshallow": 10565, "ĠRelated": 10566, "Ġbark": 10567, "anium": 10568, "uble": 10569, "Ġgenus": 10570, "nals": 10571, "ĠMos": 10572, "ropriate": 10573, "Ġdisplays": 10574, "ĠNS": 10575, "aver": 10576, "ĠNep": 10577, "ĠThursday": 10578, "83": 10579, "Ġdow": 10580, "Ġthesis": 10581, "Ġpests": 10582, "Ġdecreases": 10583, "Ġdrops": 10584, "Ġexpedition": 10585, "Ġgaps": 10586, "ĠBan": 10587, "istent": 10588, "Ġ1985": 10589, "Ġmirror": 10590, "Ġelig": 10591, "Ġessence": 10592, "Ġessays": 10593, "Ġdeleg": 10594, "ĠNC": 10595, "ĠCut": 10596, "forced": 10597, "ĠTen": 10598, "ĠSearch": 10599, "ĠGir": 10600, "Ġundergo": 10601, "Ġfemin": 10602, "friendly": 10603, "rels": 10604, "âĢĿ)": 10605, "Ġaccompany": 10606, "Ġtorn": 10607, "estone": 10608, "iph": 10609, "ylon": 10610, "Ġqualified": 10611, "abilitation": 10612, "aceutical": 10613, "Ġbladder": 10614, "olds": 10615, "spring": 10616, "Ġtelephone": 10617, "Ġenabled": 10618, "ĠYellow": 10619, "Ġhistorian": 10620, "ints": 10621, "Ġmi": 10622, "owners": 10623, "sequently": 10624, "Ġupdate": 10625, "Ġimmigration": 10626, "achel": 10627, "ĠLeon": 10628, "Ġfate": 10629, "ĠDom": 10630, "Ġdeadly": 10631, "Ġcontroversial": 10632, "Ġmystery": 10633, "ĠTuesday": 10634, "Ġbuck": 10635, "Ġdepr": 10636, "ĠAmendment": 10637, "Ġarrangement": 10638, "Ġorganisation": 10639, "My": 10640, "uv": 10641, "Ġpond": 10642, "Ġdemonstrates": 10643, "Ã¨": 10644, "Ġinver": 10645, "ĠDuke": 10646, "Ġ`": 10647, "inces": 10648, "Ġcensus": 10649, "ĠFront": 10650, "Ġimportantly": 10651, "ĠAT": 10652, "Ġgovernor": 10653, "Ġhygiene": 10654, "400": 10655, "Ġker": 10656, "Ġdefines": 10657, "stic": 10658, "Ġpriest": 10659, "uine": 10660, "ĠSoft": 10661, "LS": 10662, "ĠWars": 10663, "Ġunto": 10664, "ĠDepending": 10665, "Ġpsychiat": 10666, "chron": 10667, "ĠWrite": 10668, "ĠKim": 10669, "upiter": 10670, "Ġtermin": 10671, "Ġaffordable": 10672, "ĠAstron": 10673, "ĠHay": 10674, "Ġheal": 10675, "Ġpubl": 10676, "Ġassessed": 10677, "Ġtremend": 10678, "nings": 10679, "Ġhill": 10680, "ĠGM": 10681, "Ġvoting": 10682, "onymous": 10683, "thal": 10684, "Ġteaches": 10685, "Ġstraw": 10686, "Ġlying": 10687, "Ġkg": 10688, "Ġprone": 10689, "ECT": 10690, "burn": 10691, "Ġrats": 10692, "neg": 10693, "oult": 10694, "IST": 10695, "Ġmapping": 10696, "Ġrend": 10697, "ĠFA": 10698, "ĠâĢĿ": 10699, "doors": 10700, "ĠRepublican": 10701, "ett": 10702, "Ġdistribut": 10703, "ĠRepresent": 10704, "Ġes": 10705, "ĠPath": 10706, "ooked": 10707, "Ġcapability": 10708, "Ġrhythm": 10709, "Ġpink": 10710, "omatic": 10711, "ĠAB": 10712, "Ġspir": 10713, "Ġpromising": 10714, "effective": 10715, "Ġaccordance": 10716, "Ġextraordinary": 10717, ",âĢĻ": 10718, "Ġleak": 10719, "pson": 10720, "Ġsheets": 10721, "Ġmonthly": 10722, "Ġgear": 10723, "Ġrings": 10724, "ricane": 10725, "Ġsustained": 10726, "Ġhunger": 10727, "81": 10728, "Ġdiscl": 10729, "ĠTibet": 10730, "ĠFram": 10731, "Ġtalks": 10732, "ĠWednes": 10733, "sex": 10734, "ĠMand": 10735, "Ġoccurrence": 10736, "fire": 10737, "ĠFOR": 10738, "ĠEle": 10739, "Ġprospect": 10740, "Ġdiscomfort": 10741, "Ġfallen": 10742, "ĠBulgar": 10743, "ĠLower": 10744, "ĠEducational": 10745, "rophic": 10746, "Ġafraid": 10747, "Ġpersistent": 10748, "ĠGrant": 10749, "ĠJean": 10750, "thodox": 10751, "ĠBow": 10752, "Ġ1984": 10753, "omal": 10754, "Ġconducting": 10755, "Ġpap": 10756, "Ġfrog": 10757, "ĠSens": 10758, "Ġgenetics": 10759, "Ġorganisations": 10760, "inflamm": 10761, "Ġbeam": 10762, "action": 10763, "Ġprogressive": 10764, "Ġconfiguration": 10765, "Ġoverwhelming": 10766, "ĠQuality": 10767, "ĠFall": 10768, "Ġmeter": 10769, "Ġsearching": 10770, "Ã³n": 10771, "Ġdefects": 10772, "Ġcompletion": 10773, "Ġillustrated": 10774, "Ġbills": 10775, "Ġobser": 10776, "Ġdestination": 10777, "Ġflooding": 10778, "ĠSher": 10779, "ĠOpt": 10780, "Ġcoral": 10781, "Ġportray": 10782, "onin": 10783, "ĠNetherlands": 10784, "De": 10785, "Ġwed": 10786, "Ġmart": 10787, "Ġcircles": 10788, "Ġencourages": 10789, "ĠTransport": 10790, "Ġcelebration": 10791, "Ġtransformed": 10792, "Ed": 10793, "lyn": 10794, "hedral": 10795, "Ġdefeat": 10796, "Pro": 10797, "type": 10798, "Ġmarch": 10799, "ĠTro": 10800, "Ġcong": 10801, "ocent": 10802, "Ġmeteor": 10803, "Ġhardly": 10804, "Ġscenes": 10805, "Ġreserves": 10806, "Ġsubstr": 10807, "Ġnick": 10808, "iking": 10809, "aze": 10810, "Ġruling": 10811, "orney": 10812, "Ġpathways": 10813, "Ġpromotes": 10814, "Ġrelatives": 10815, "Ġarranged": 10816, "Ġcompliance": 10817, "berries": 10818, "Ġdistract": 10819, "generation": 10820, "Ġstriking": 10821, "ĠTurkish": 10822, "Ġmonument": 10823, "Ġexplored": 10824, "ĠEarl": 10825, "ĠCore": 10826, "Ġunnecess": 10827, "Ġcalculations": 10828, "Ġvacuum": 10829, "ĠRose": 10830, "agger": 10831, "ĠRecent": 10832, "Ġgolden": 10833, "Ġhazards": 10834, "Ad": 10835, "vol": 10836, ".-": 10837, "Ġconsensus": 10838, "Ġemit": 10839, "Ġnamely": 10840, "fare": 10841, "Ġsubmitted": 10842, "afe": 10843, "Ġgeographic": 10844, "ja": 10845, "anas": 10846, "ĠHur": 10847, "Ġalphabet": 10848, "Se": 10849, "lam": 10850, "ĠGer": 10851, "akespe": 10852, "arter": 10853, "reement": 10854, "Ġwritings": 10855, "ML": 10856, "ĠObserv": 10857, "á¹": 10858, "storm": 10859, "Ġdistances": 10860, "Ġtracking": 10861, "Ġmanufacturer": 10862, "Ġcasual": 10863, "icular": 10864, "Ġenact": 10865, "Ġprogression": 10866, "ognition": 10867, "Ġadaptation": 10868, "Ġutilize": 10869, "Ġride": 10870, "Ġdominated": 10871, "Ġadministered": 10872, "ĠSamuel": 10873, "Ġimmunity": 10874, "ĠMaterials": 10875, "Ġembedded": 10876, "atile": 10877, "Ġlunch": 10878, "Ġentreprene": 10879, "dominal": 10880, "Ġdrainage": 10881, "Ġseiz": 10882, "Ġcomparing": 10883, "Ġ47": 10884, "ĠAlong": 10885, "uster": 10886, "Ġprescription": 10887, "akespeare": 10888, "ceeds": 10889, "urday": 10890, "ĠLind": 10891, "ĠProtest": 10892, "ĠSweden": 10893, "Ġrecommends": 10894, "ĠGuid": 10895, "Ġtoxins": 10896, "doi": 10897, "ĠBor": 10898, "Ġcontinuously": 10899, "ĠMental": 10900, "Ġcareg": 10901, "Ġ1979": 10902, "Ġmistake": 10903, "Ġasks": 10904, "Ġwhales": 10905, "Ġmagnet": 10906, "Ġjaw": 10907, "Ġapps": 10908, "Ġbrowser": 10909, "Ġbrid": 10910, "Ġswallow": 10911, "Ġmodeling": 10912, "ĠMonth": 10913, "Ġphilosophical": 10914, "found": 10915, "Ġber": 10916, "arians": 10917, "Ġgenerating": 10918, "DR": 10919, "atre": 10920, "ĠPH": 10921, "ysical": 10922, "Ġreferring": 10923, "ĠAdditional": 10924, "Ġnotable": 10925, "Ġshield": 10926, "Ġinvited": 10927, "Ġnecessity": 10928, "ĠMovement": 10929, "ĠTaylor": 10930, "case": 10931, "eav": 10932, "heastern": 10933, "this": 10934, "Ġsuspected": 10935, "security": 10936, "atin": 10937, "Ġfluids": 10938, "That": 10939, "Ġtiming": 10940, "arer": 10941, "ĠIntellig": 10942, "anol": 10943, "ĠJane": 10944, "Ġaluminum": 10945, "Ġreserve": 10946, "Ġantibodies": 10947, "rared": 10948, "Ġprosec": 10949, "Ġgathering": 10950, "ulture": 10951, "Ġsurre": 10952, "Ġhighlights": 10953, "Ġattracted": 10954, "Ġthorough": 10955, "ressing": 10956, "Ġloan": 10957, "ĠÂ»": 10958, "ulator": 10959, "Ġassumptions": 10960, "ĠPsychology": 10961, "ĠGenerally": 10962, "Ġbor": 10963, "Ġdoctrine": 10964, "Ġsle": 10965, "ĠTherapy": 10966, "ĠYears": 10967, "Ġheter": 10968, "arma": 10969, "iki": 10970, "Ġacceptance": 10971, "isphere": 10972, "Ġantibiotic": 10973, "swered": 10974, "Ġvomiting": 10975, "Bl": 10976, "ĠDu": 10977, "Ġshouldn": 10978, "Ġbind": 10979, "ĠUC": 10980, "ĠSpecies": 10981, "Ġelectronics": 10982, "Ġfilling": 10983, "ĠRog": 10984, "Ġinstant": 10985, "Ġfrequencies": 10986, "Ġreservoir": 10987, "Ġfraud": 10988, "ĠWednesday": 10989, "Ġpushed": 10990, "Ġhang": 10991, "Ġencompass": 10992, "velt": 10993, "ĠComb": 10994, "Ġbulk": 10995, "Ġmutual": 10996, "ĠHunt": 10997, "Ġprotects": 10998, "ĠMarg": 10999, "ĠAccount": 11000, "Ġdinner": 11001, "Ġfrozen": 11002, "Ġrom": 11003, "ĪĴ": 11004, "Ġcope": 11005, "Ġpock": 11006, "ĠQur": 11007, "Ġirre": 11008, "Ġrestored": 11009, "Ġnic": 11010, "Ġvow": 11011, "Ġoutline": 11012, "Ġskull": 11013, "Ġmini": 11014, "Ġfeatured": 11015, "feeding": 11016, "FC": 11017, "ĠSite": 11018, "ĠEvolution": 11019, "gr": 11020, "Ġenemies": 11021, "ĠDepression": 11022, "Ġdiscoveries": 11023, "itus": 11024, "Ġalike": 11025, "Ġmetres": 11026, "ĠGrade": 11027, "Ġexclusively": 11028, "ĠPay": 11029, "Ġsubtle": 11030, "iversary": 11031, "Ġtourism": 11032, "ĠGreg": 11033, "ĠImag": 11034, "Don": 11035, "don": 11036, "makers": 11037, "ĠZh": 11038, "Ġgains": 11039, "ĠJupiter": 11040, "ĠSTEM": 11041, "cticut": 11042, "ĠVictoria": 11043, "Ġovers": 11044, "cts": 11045, "Ġpries": 11046, "Ġinfluenza": 11047, "Ġdigit": 11048, "Ġsolely": 11049, "Ġ49": 11050, "Ġwavelength": 11051, "ĠSyria": 11052, "ĠElectric": 11053, "ĠAIDS": 11054, "ĠRand": 11055, "ĠGenesis": 11056, "Ġcategor": 11057, "ĠPhilip": 11058, "ĠInv": 11059, "ĠFreedom": 11060, "Ġcoinc": 11061, "ĠCensus": 11062, "Ġdehyd": 11063, "Ġfilters": 11064, "Ġdistinctive": 11065, "Ġdiarrhea": 11066, "oil": 11067, "ĠVery": 11068, "Ġ51": 11069, "Ġbehalf": 11070, "imedia": 11071, "ĠJob": 11072, "arest": 11073, "Ġarbit": 11074, "owa": 11075, "ĠHealthy": 11076, "Ġprecision": 11077, "Ġboxes": 11078, "At": 11079, "ĠFord": 11080, "Ġnewspapers": 11081, "Ġhazardous": 11082, "ĠGh": 11083, "ĠLuther": 11084, "icked": 11085, "ĠArist": 11086, "Ġinspect": 11087, "Ġlegacy": 11088, "ĠArchitect": 11089, "Ġguns": 11090, "Ġdegradation": 11091, "PDF": 11092, "Ġmercury": 11093, "Ġseasons": 11094, "ĠChile": 11095, "Ġloans": 11096, "omon": 11097, "Ġpoorly": 11098, "Ġsteady": 11099, "Ġinadequ": 11100, "ĠExample": 11101, "Ġmud": 11102, "cet": 11103, "ĠRus": 11104, "Ġpresum": 11105, "ushing": 11106, "ĠADHD": 11107, "Ġyard": 11108, "osevelt": 11109, "Ġregen": 11110, "ĠAnim": 11111, "ĠCreative": 11112, "Ġthinks": 11113, "ĠPrior": 11114, "acon": 11115, "ĠLeague": 11116, "Ġintelligent": 11117, "Ġspelling": 11118, "Le": 11119, "mn": 11120, "Ùħ": 11121, "Ġenabling": 11122, "akh": 11123, "ĠBridge": 11124, "Ġarrested": 11125, "Ġcompensation": 11126, "actic": 11127, "Ġsafer": 11128, "Ġcondem": 11129, "Ġpoliticians": 11130, "ĠMonitor": 11131, "ĠCaptain": 11132, "onics": 11133, "Ġlapt": 11134, "ĠPoll": 11135, "ivals": 11136, "Ġ1800": 11137, "Ġopens": 11138, "Ġartif": 11139, "Ġaccessed": 11140, "Ġsperm": 11141, "oved": 11142, "ĠShakespeare": 11143, "Ġadvertising": 11144, "Ġquote": 11145, "Ġfertility": 11146, "Åį": 11147, "Ġought": 11148, "phones": 11149, "Ġfacial": 11150, "ynt": 11151, "Ġbattles": 11152, "Ġportions": 11153, "Ġic": 11154, "ĠHell": 11155, "**": 11156, "Ġlocally": 11157, "Ġcontributes": 11158, "Ġepidemic": 11159, "ĠTaking": 11160, "Ġinfluential": 11161, "FS": 11162, "PD": 11163, "rise": 11164, "Ġdirectory": 11165, "Ġemerge": 11166, "ĠDub": 11167, "ountered": 11168, "Ġrises": 11169, "Ġcatast": 11170, "Ġimperial": 11171, "ĠIndustrial": 11172, "Ġloyal": 11173, "Ġliberty": 11174, "ĠBuddhism": 11175, "igma": 11176, "Ġexpend": 11177, "Ġexecution": 11178, "Ġ@": 11179, "Ġpneum": 11180, "ĠThings": 11181, "ternoon": 11182, "Ġthickness": 11183, "Ġprostate": 11184, "Ġkit": 11185, "develop": 11186, "Ġcommander": 11187, "Ġempower": 11188, "ĠCe": 11189, "Ġadmitted": 11190, "Ġrepublic": 11191, "Ġdangers": 11192, "Ġinvestigated": 11193, "Ġillustrate": 11194, "Ġassumption": 11195, "Ġ99": 11196, "ĠResults": 11197, "Ġnucleus": 11198, "Ġchapters": 11199, "Ġshoulder": 11200, "Ġscenarios": 11201, "orient": 11202, "ontin": 11203, "Ġthrive": 11204, "Ġdisappear": 11205, "Ġmarginal": 11206, "ĠRub": 11207, "Ġfifty": 11208, "ĠMiller": 11209, "roleum": 11210, "arth": 11211, "acher": 11212, "Ġvolumes": 11213, "Ġencountered": 11214, "ĠMaria": 11215, "Ġindicators": 11216, "Ġanat": 11217, "vals": 11218, "Ùĩ": 11219, "Ġwages": 11220, "ĠLove": 11221, "aug": 11222, "ĠKat": 11223, "82": 11224, "ĠPeriod": 11225, "ĠSaturday": 11226, "ĠKnowledge": 11227, "NT": 11228, "Ġicon": 11229, "entieth": 11230, "Ġoriginated": 11231, "ergarten": 11232, "Ġcounterpart": 11233, "ĠFacts": 11234, "eared": 11235, "Ġsau": 11236, "Ġ57": 11237, "Ġorganize": 11238, "Ġcorrelation": 11239, "lings": 11240, "ĠCass": 11241, "Ġcommod": 11242, "Ġrepeatedly": 11243, "uting": 11244, "Ġinsu": 11245, "bestos": 11246, "emed": 11247, "Ġcha": 11248, "Ġdeterior": 11249, "Ġexecuted": 11250, "Hz": 11251, "enders": 11252, "ĠRequ": 11253, "Ġdesigners": 11254, "Ġgrants": 11255, "Ġseverely": 11256, "Ġdeclined": 11257, "ĠFreder": 11258, "ĠGP": 11259, "uns": 11260, "Ġphases": 11261, "Ġrealistic": 11262, "ĠQuestion": 11263, "Ġgalaxy": 11264, "hops": 11265, "Ġfoster": 11266, "Ġintensive": 11267, "ĠRoosevelt": 11268, "Ġlicensed": 11269, "Ġpipes": 11270, "Ġanten": 11271, "emet": 11272, "Ġshadow": 11273, "Ġexplaining": 11274, "ĠUsually": 11275, "Ġincredible": 11276, "Ġdismiss": 11277, "Ġrescue": 11278, "Ġshipping": 11279, "Ġimpression": 11280, "Ġblacks": 11281, "Ġanalog": 11282, "Ġcloth": 11283, "Ġdiscussing": 11284, "ammad": 11285, "Ġstimulate": 11286, "Ġtape": 11287, "Ġanswered": 11288, "Ġreson": 11289, "ĠVideo": 11290, "Ġfollowers": 11291, "2004": 11292, "Ġmasses": 11293, "Ġstorms": 11294, "Ġinclusion": 11295, "Ġdisput": 11296, "aund": 11297, "Ġrocket": 11298, "ĠEssay": 11299, "omical": 11300, "ĠAlcohol": 11301, "Ġconsiderably": 11302, "Ġcriticism": 11303, "cor": 11304, "arium": 11305, "ogram": 11306, "ĠForeign": 11307, "Ġdreams": 11308, "Ġtoile": 11309, "ĠEval": 11310, "Ġfurniture": 11311, "Ġinherited": 11312, "Ġconjunction": 11313, "ĠConnecticut": 11314, "range": 11315, "inian": 11316, "Ġorn": 11317, "Ġboards": 11318, "Ġparticipated": 11319, "dated": 11320, "Ġdollar": 11321, "ĠScottish": 11322, "Ġdimension": 11323, "Ġwax": 11324, "ĠMoh": 11325, "arts": 11326, "conf": 11327, "Ġmultip": 11328, "burgh": 11329, "Ġtimber": 11330, "Ġunity": 11331, "Ġcycl": 11332, "Ġfleet": 11333, "iors": 11334, "uz": 11335, "Ġanch": 11336, "Ġgenuine": 11337, "ikes": 11338, "Ġignored": 11339, "ĠCultural": 11340, "VD": 11341, "restrial": 11342, "ĠTax": 11343, "igration": 11344, "Ġoverse": 11345, "ĠScholar": 11346, "Ġpicked": 11347, "Ġreproduction": 11348, ".]": 11349, "rell": 11350, "Ġ56": 11351, "shore": 11352, "ĠTreaty": 11353, "hard": 11354, "named": 11355, "Ġalien": 11356, "ĠOrd": 11357, "ĠTeacher": 11358, "icting": 11359, "ilib": 11360, "ĠPow": 11361, "ĠPlants": 11362, "UM": 11363, "ĠBot": 11364, "nected": 11365, "dimensional": 11366, "ĠPear": 11367, "Ġsurveillance": 11368, "py": 11369, "onto": 11370, "ican": 11371, "stration": 11372, "Ġpride": 11373, "Ġmatrix": 11374, "Ġstressed": 11375, "Ġincorrect": 11376, "Ġcompat": 11377, "Ġoxide": 11378, "Ġhypert": 11379, "aft": 11380, "ĠHP": 11381, "essional": 11382, "Ġsel": 11383, "otyp": 11384, "ĠFat": 11385, "ĠThroughout": 11386, "Ġinequality": 11387, "Ġflesh": 11388, "atching": 11389, "Ġtexture": 11390, "acular": 11391, "ĠShow": 11392, "Ġpaths": 11393, "Ġweapon": 11394, "BD": 11395, "yan": 11396, "ĠFem": 11397, "Ġmarkers": 11398, "Ġstakeholders": 11399, "Ġgrave": 11400, "Ġdetermines": 11401, "sized": 11402, "Ġforb": 11403, "gered": 11404, "ĠPlanet": 11405, "ĠAfghanistan": 11406, "Ġbrill": 11407, "Ġmoments": 11408, "Ġcardiac": 11409, "Ġrubber": 11410, "Ġdefeated": 11411, "Ġdepartments": 11412, "ĠVers": 11413, "Ġperspectives": 11414, "Ġlift": 11415, "Ġcoordination": 11416, "Ġtang": 11417, "Ġnurse": 11418, "Ġcrash": 11419, "FA": 11420, "matic": 11421, "ĠTypes": 11422, "osphere": 11423, "Ġcooked": 11424, "ĠDeclar": 11425, "Ġrotation": 11426, "ĠImperial": 11427, "Ġtransf": 11428, "Ġpatri": 11429, "ĠBelg": 11430, "Ġnineteenth": 11431, "ĠHistoric": 11432, "iens": 11433, "leton": 11434, "ĠBad": 11435, "Ġpayments": 11436, "Ġtoys": 11437, "asures": 11438, "Ġstrand": 11439, "Ġpassive": 11440, "Ġacknowledge": 11441, "ĠLinux": 11442, "ĠNi": 11443, "Ġgroundwater": 11444, "Ġlawn": 11445, "Ġcolleges": 11446, "orie": 11447, "Ġoutdoors": 11448, "ĠClark": 11449, "Ġdrag": 11450, "ĠDefense": 11451, "Ġnerves": 11452, "bro": 11453, "ĠWas": 11454, "ĠDownload": 11455, "Ġepisode": 11456, "Ġappetite": 11457, "ĠMission": 11458, "ĠStone": 11459, "Ġ52": 11460, "Ġignore": 11461, "Ġaquatic": 11462, "Ġreplic": 11463, "olas": 11464, "Ġflowing": 11465, "Ġconclude": 11466, "!)": 11467, "Ġcerv": 11468, "Ġelectrom": 11469, "Ġpollen": 11470, "Ġbeds": 11471, "Ġguides": 11472, "Ġinjection": 11473, "Ġpec": 11474, "Ġgums": 11475, "ĠSA": 11476, "Ġspecimens": 11477, "ĠIndex": 11478, "Ġviewing": 11479, "emia": 11480, "Ġseeks": 11481, "Ã§": 11482, "ĠPublished": 11483, "ĠExecutive": 11484, "ĠHad": 11485, "Ġstops": 11486, "Ġincredibly": 11487, "ĠPolitical": 11488, "hour": 11489, "Ġwra": 11490, "Ġ1969": 11491, "ĠDiego": 11492, "emetery": 11493, "Ġclassrooms": 11494, "ĠCommunication": 11495, "yo": 11496, "olecular": 11497, "Ġbelonging": 11498, "Ġalleged": 11499, "Ġrelieve": 11500, "isible": 11501, "Ġodd": 11502, "Ġresur": 11503, "Ġterritories": 11504, "Ġfled": 11505, "ochond": 11506, "ĠDougl": 11507, "onent": 11508, "Ġreligions": 11509, "ollo": 11510, "ĠPap": 11511, "ĠCollect": 11512, "Ġsupplied": 11513, "Ġuncertainty": 11514, "eenth": 11515, "ĠÏ": 11516, "iler": 11517, "ĠOverall": 11518, "Ġempir": 11519, "ĠÂ°": 11520, "TML": 11521, "ĠGolden": 11522, "Ġprevalent": 11523, "Ġmethane": 11524, "high": 11525, "Ġrou": 11526, "Ġemperor": 11527, "Ġapplicable": 11528, "Ġcataly": 11529, "Ø±": 11530, "ĠDun": 11531, "Ġcommands": 11532, "Ġeducate": 11533, "Ġpathogens": 11534, "Ġphrases": 11535, "!\"": 11536, "Ġovert": 11537, "Ġeconomies": 11538, "Ġ1983": 11539, "Ġpackaging": 11540, "Ġtubes": 11541, "Ġconservative": 11542, "wall": 11543, "Ġscal": 11544, "ĠSel": 11545, "Ġmounted": 11546, "father": 11547, "ÑĤ": 11548, "ĠHong": 11549, "Ġabroad": 11550, "2017": 11551, "Ġmetap": 11552, "Ġintegral": 11553, "2014": 11554, "Ġangry": 11555, "Ġmakers": 11556, "pm": 11557, "who": 11558, "ĠBob": 11559, "ĠNort": 11560, "Ġbugs": 11561, "Ġ1975": 11562, "ĠLt": 11563, "Ġkings": 11564, "ancial": 11565, "Ġcrossing": 11566, "Ġdetermination": 11567, "EST": 11568, "Ġinterpreted": 11569, "Ġdamaging": 11570, "Ġwealthy": 11571, "Ġinstitutional": 11572, "grim": 11573, "ĠCham": 11574, "ĠAlways": 11575, "Ġskilled": 11576, "Ġ1982": 11577, "ĠVirt": 11578, "seud": 11579, "ĠPast": 11580, "ĠNich": 11581, "Ġ53": 11582, "Ġcompassion": 11583, "ĠPolish": 11584, "ĠIndonesia": 11585, "EV": 11586, "lah": 11587, "Ġviable": 11588, "ĠCape": 11589, "psy": 11590, "Ġepidem": 11591, "uty": 11592, "Ġtraveled": 11593, "Ġharass": 11594, "Ġconversations": 11595, "alo": 11596, "Ġstatic": 11597, "ĠMit": 11598, "ĠEs": 11599, "ĠCommand": 11600, "Ġinvestors": 11601, "ĠArchae": 11602, "Ġlith": 11603, "ĠCra": 11604, "ĠPict": 11605, "erness": 11606, "Ġtomb": 11607, "Ġconvention": 11608, "Ġexpenses": 11609, "Ġheadaches": 11610, "Ġtransparent": 11611, "Ġintu": 11612, "Ġunpre": 11613, "Ġcorporations": 11614, "essee": 11615, "ĠLic": 11616, "iley": 11617, "ĠMilitary": 11618, "orious": 11619, "rock": 11620, "ĠBapt": 11621, "Ġrecovered": 11622, "elson": 11623, "olescent": 11624, "ĠEffects": 11625, "gebra": 11626, "Ġpanc": 11627, "Ġlig": 11628, "Ġpossession": 11629, "bral": 11630, "illy": 11631, "rage": 11632, "Ġcaffe": 11633, "Ġchecked": 11634, "()": 11635, "Ġbrick": 11636, "ĠWH": 11637, "Ġapple": 11638, "dis": 11639, "ÑĢ": 11640, "Ġlect": 11641, "ĠPrime": 11642, "Ġdiagnose": 11643, "yt": 11644, "ĠAlbert": 11645, "Ġcostly": 11646, "Ġprecious": 11647, "Ġignor": 11648, "orks": 11649, "ĠSM": 11650, "Ġquad": 11651, "Ġoverweight": 11652, "Ġradi": 11653, "cat": 11654, "asa": 11655, "2003": 11656, "Ġchecking": 11657, "Ġmutation": 11658, "Ġmicrobes": 11659, "RL": 11660, "abama": 11661, "ĠRA": 11662, "Ġindicator": 11663, "rup": 11664, "formance": 11665, "Ġsteep": 11666, "Ġgifts": 11667, "Ġhip": 11668, "Ġgau": 11669, "ĠCel": 11670, "ĠBody": 11671, "arding": 11672, "Ġincidents": 11673, "Ġpollutants": 11674, "Ġherbs": 11675, "Ġmagnesium": 11676, "Ġlimiting": 11677, "Ġpupp": 11678, "ographer": 11679, "Ġceremony": 11680, "ĠDeclaration": 11681, "Ġtired": 11682, "Ġquantitative": 11683, "Ġrevolutionary": 11684, "ulus": 11685, "ĠDor": 11686, "Ġdecent": 11687, "ĠVisual": 11688, "Ġprotocols": 11689, "inflammatory": 11690, "irs": 11691, "rying": 11692, "Ġabsent": 11693, "Ġwetlands": 11694, "Ġafternoon": 11695, "ĠLie": 11696, "Ġverse": 11697, "Ġsatellites": 11698, "inus": 11699, "itored": 11700, "Ġobsc": 11701, "Ġ54": 11702, "Ġdenied": 11703, "ĠMountains": 11704, "Ġpulled": 11705, "rology": 11706, "ĠTorah": 11707, "ĠEthiop": 11708, "Ġtransactions": 11709, "Re": 11710, "Ġsket": 11711, "ĠSche": 11712, "Ġhearts": 11713, "oxide": 11714, "Ġunemployment": 11715, "Ġmeets": 11716, "ĠMaybe": 11717, "ĠAustria": 11718, "ĠMcG": 11719, "icides": 11720, "Ġatom": 11721, "eer": 11722, "keys": 11723, "Ġfee": 11724, "Ġgrey": 11725, "upp": 11726, "Ġric": 11727, "ĠGive": 11728, "Ġjew": 11729, "Ġmainstream": 11730, "2015": 11731, "risk": 11732, "Ġinitiated": 11733, "Ġgenetically": 11734, "Ġreceptors": 11735, "Ġgaining": 11736, "ĠSyn": 11737, "Ġemission": 11738, "Ġextends": 11739, "Ġinflammatory": 11740, "instein": 11741, "ĠTips": 11742, "Ġwhilst": 11743, "Ġprogrammes": 11744, "Ġmembership": 11745, "Ġsynthesis": 11746, "Ġinterviews": 11747, "Ġmosquito": 11748, "Ġdescriptions": 11749, "ĠHawaii": 11750, "inea": 11751, "Ġrecycled": 11752, "whe": 11753, "Ġcombust": 11754, "Ġterminal": 11755, "Ġracism": 11756, "bone": 11757, "ĠRa": 11758, "osaurs": 11759, "ĠKong": 11760, "incial": 11761, "Ġfarmer": 11762, "Ġbands": 11763, "Ġwarmer": 11764, "Ġmurd": 11765, "ĠUtah": 11766, "ez": 11767, "inates": 11768, "Ġhack": 11769, "ĠEdition": 11770, "Ġattempting": 11771, "ilty": 11772, "Ġgraphic": 11773, "Ġendeav": 11774, "ugar": 11775, "Ġsinging": 11776, "Ġextraction": 11777, "Ġsorts": 11778, "ĠTri": 11779, "ĠPrevious": 11780, "ĠSustainable": 11781, "Ġnas": 11782, "osexual": 11783, "Ġpropos": 11784, "Ġarchitectural": 11785, "iro": 11786, "ĠJoh": 11787, "Ġsmallest": 11788, "Ġgovernance": 11789, "yers": 11790, "ĠCalc": 11791, "Ġarchaeological": 11792, "oultry": 11793, "cm": 11794, "human": 11795, "heres": 11796, "Ġexamining": 11797, "Ġpoems": 11798, "they": 11799, "ĠCountry": 11800, "Ġhosts": 11801, "Ġchains": 11802, "Ġmeanings": 11803, "ĠRelations": 11804, "Ġsubstitute": 11805, "Ġneighbors": 11806, "ishers": 11807, "Ġadul": 11808, "ĠArthur": 11809, "ĠTB": 11810, "orship": 11811, "angers": 11812, "ĠArchives": 11813, "fat": 11814, "ĠDeep": 11815, "ĠByz": 11816, "ĠPrin": 11817, "ĠTennessee": 11818, "sur": 11819, "school": 11820, "Ġsore": 11821, "Ġcel": 11822, "ĠAqu": 11823, "Ġstuck": 11824, "Ġpromoted": 11825, "ĠBenj": 11826, "Ġnurses": 11827, "ĠPMID": 11828, "ĠCru": 11829, "ailing": 11830, "Ġsubstantially": 11831, "Ġunnecessary": 11832, "ĠIb": 11833, "ĠPas": 11834, "ĠDraw": 11835, "Ġgrat": 11836, "Ġresponded": 11837, "ĠChoose": 11838, "ĠFri": 11839, "Ġpersec": 11840, "Ġprofits": 11841, "Ġsurviving": 11842, "hr": 11843, "opter": 11844, "Ġoperators": 11845, "Ġensures": 11846, "esy": 11847, "iser": 11848, "Ġbin": 11849, "Ġimposed": 11850, "Ġshortly": 11851, "Ġblockchain": 11852, "eld": 11853, "ĠDiagn": 11854, "ĠMalays": 11855, "Ġshopping": 11856, "ĠPrimary": 11857, "Î½": 11858, "Ġagenda": 11859, "Ġexplosion": 11860, "Ġequations": 11861, "Ġdocumentation": 11862, "Ġcollaborative": 11863, "lob": 11864, "non": 11865, "ÙĬ": 11866, "osity": 11867, "Ġalb": 11868, "Ġtalked": 11869, "ĠCorporation": 11870, "ĠAlabama": 11871, "uese": 11872, "engu": 11873, "kal": 11874, "link": 11875, "Ġbom": 11876, "Ġdishes": 11877, "Ġfeas": 11878, "Ġreads": 11879, "Ġsymmet": 11880, "Ġprophe": 11881, "Ġpowered": 11882, "Ġthrone": 11883, "UD": 11884, "ĠPersonal": 11885, "ochemical": 11886, "ĠGas": 11887, "Ġperipher": 11888, "Ġconsisted": 11889, "ĠMarket": 11890, "imeter": 11891, "ĠSa": 11892, "Ġyields": 11893, "aying": 11894, "ĠRod": 11895, "Ġresidence": 11896, "Ġmultipl": 11897, "appy": 11898, "appropriate": 11899, "Ġaccused": 11900, "Ġpatch": 11901, "Ġentity": 11902, "olis": 11903, "ordan": 11904, "Ġ72": 11905, "Ġglobally": 11906, "600": 11907, "Ġchip": 11908, "weet": 11909, "ĠArgent": 11910, "Ġlunar": 11911, "front": 11912, "Ġabd": 11913, "Ġgalaxies": 11914, "Ġpitch": 11915, "ĠMuh": 11916, "Ġservers": 11917, "Ġpublicly": 11918, "ilateral": 11919, "Ġdisasters": 11920, "ĠVill": 11921, "ĠAlmost": 11922, "Ġsimulation": 11923, "Ġzinc": 11924, "ESS": 11925, "Ġdrawings": 11926, "Ġteachings": 11927, "ĠProtocol": 11928, "ĠLeaders": 11929, "jo": 11930, "Ġcod": 11931, "ĠIC": 11932, "ĠCredit": 11933, "ausea": 11934, "Ġpencil": 11935, "Ġvolunteer": 11936, "ĠTy": 11937, "ĠGro": 11938, "Ġfulfill": 11939, "Ġtelescope": 11940, "ropolitan": 11941, "ĠIndiana": 11942, "pers": 11943, "Â·": 11944, "Ġdual": 11945, "Ġgland": 11946, "Ġguided": 11947, "Ġpotatoes": 11948, "ĠPrevent": 11949, "Ġrespective": 11950, "Ġpalm": 11951, "Ġbay": 11952, "Ġdisposal": 11953, "Ġimagery": 11954, "Ġvolcanic": 11955, "Ġmanufactured": 11956, "ĠLawrence": 11957, "Ġastronaut": 11958, "Ġpharmac": 11959, "inced": 11960, "ORD": 11961, "Ġfreshwater": 11962, "Ġstiff": 11963, "Ġadmit": 11964, "Ġprojected": 11965, "screen": 11966, "Ġspeaks": 11967, "Ġtitles": 11968, "Ġtremendous": 11969, "oen": 11970, "Ġstack": 11971, "izational": 11972, "ĠCommer": 11973, "ĠCompar": 11974, "ĠTele": 11975, "ĠGetting": 11976, "Ġmotivated": 11977, "ĠFranklin": 11978, "ĠAdvanced": 11979, "attle": 11980, "Ġpreschool": 11981, "Ġpromised": 11982, "Ġvoters": 11983, "names": 11984, "Ġink": 11985, "avirus": 11986, "Ġexpense": 11987, "Ġdecomp": 11988, "Ġcomparable": 11989, "Ġvoices": 11990, "ĠBoy": 11991, "govern": 11992, "Ġcampaigns": 11993, "Ps": 11994, "ĠStress": 11995, "ĠStaff": 11996, "Ġflies": 11997, "Ġcrossed": 11998, "iplinary": 11999, "ĠÎ¼": 12000, "Ġingredient": 12001, "ĠCapital": 12002, "Ġdevastating": 12003, "backs": 12004, "arse": 12005, "Ġheaded": 12006, "uming": 12007, "aki": 12008, "Ġmonitored": 12009, "ĠBuild": 12010, "ĠMemorial": 12011, "inator": 12012, "egu": 12013, "Ġseemingly": 12014, "lessly": 12015, "white": 12016, "Ġsoldier": 12017, "Ġfestival": 12018, "ĠAges": 12019, "ĠWinter": 12020, "Ġpersonally": 12021, "spe": 12022, "ĠPa": 12023, "activity": 12024, "Ġretreat": 12025, "GS": 12026, "rans": 12027, "Ġcorruption": 12028, "Ġcombinations": 12029, "Ġvirtue": 12030, "Ġbiomass": 12031, "held": 12032, "ĠSaturn": 12033, "sl": 12034, "Ġpurple": 12035, "Ġ1973": 12036, "Ġcontracts": 12037, "Ġsugars": 12038, "Ġprolonged": 12039, "Ġfoundations": 12040, "there": 12041, "Ġpracticed": 12042, "Ġhistorically": 12043, "Ġaffirm": 12044, "ĠNapole": 12045, "Do": 12046, "IO": 12047, "Ġedited": 12048, "Ġsocially": 12049, "Ġcruel": 12050, "ĠEveryone": 12051, "Ġrefriger": 12052, "urred": 12053, "Ġevac": 12054, "ependent": 12055, "ĠProphet": 12056, "Ġnode": 12057, "ttes": 12058, "Ġmethodology": 12059, "Ġpressures": 12060, "letter": 12061, "ĠGames": 12062, "Ġentities": 12063, "ĠTravel": 12064, "Ġpix": 12065, "lear": 12066, "Ġcounts": 12067, "Ġbasics": 12068, "Ġradar": 12069, "ĠProtect": 12070, "ulses": 12071, "olly": 12072, "ĠBall": 12073, "ĠRout": 12074, "ERS": 12075, "Ġmines": 12076, "Ġconsp": 12077, "ĠYouth": 12078, "Ġannounce": 12079, "ĠTal": 12080, "Ġchron": 12081, "Ġbeta": 12082, "Ġbelt": 12083, "Ġclosest": 12084, "ibration": 12085, "iolet": 12086, "These": 12087, "BA": 12088, "ĠMu": 12089, "Ġheated": 12090, "angular": 12091, "Ġindication": 12092, "Ġpassengers": 12093, "Ġconstraints": 12094, "ĠTitan": 12095, "Ġbeef": 12096, "Ġrelates": 12097, "Ġrobots": 12098, "ĠLouisiana": 12099, "ĠParticip": 12100, "ĠPerson": 12101, "Ġanniversary": 12102, "ĠØ§": 12103, "Ġchamp": 12104, "ogene": 12105, "Ġequity": 12106, "rasound": 12107, "Ġcolours": 12108, "Ġdispute": 12109, "Ġbottles": 12110, "ĠImpact": 12111, "pur": 12112, "uras": 12113, "Ġdeals": 12114, "ĠStock": 12115, "ĠInclud": 12116, "Ġneighbour": 12117, "ĠPlanning": 12118, "Ġabdominal": 12119, "Ġoffspring": 12120, "riction": 12121, "ĠConserv": 12122, "Ġfears": 12123, "ĠPopulation": 12124, "ilibrium": 12125, "Ġsyll": 12126, "Ġsword": 12127, "Ġmissed": 12128, "ĠPersian": 12129, "Ġsacrific": 12130, "Ġbats": 12131, "igs": 12132, "ewater": 12133, "Ġclusters": 12134, "Ġbases": 12135, "Ġnoble": 12136, "Ġgel": 12137, "ĠDomin": 12138, "Ġregulated": 12139, "venue": 12140, "Ġlandf": 12141, "Ġtempt": 12142, "Ġ1978": 12143, "Ð½": 12144, "Ġinquiry": 12145, "eland": 12146, "Ġintens": 12147, "Ġbreakfast": 12148, "iotics": 12149, "ĠBrook": 12150, "ĠPhilippines": 12151, "ĠBenjamin": 12152, "PC": 12153, "Ġdirt": 12154, "Ġcommemor": 12155, "ĠAnaly": 12156, "Ġimmense": 12157, "ĠBroad": 12158, "htm": 12159, "ĠPrize": 12160, "Ġvapor": 12161, "itance": 12162, "ĠPra": 12163, "ĠRaj": 12164, "Ġsearc": 12165, "Ġ1981": 12166, "Ġepit": 12167, "Ġenterprise": 12168, "ĠRadio": 12169, "Ġpractitioners": 12170, "mouth": 12171, "2016": 12172, "ĠTs": 12173, "Ġneedle": 12174, "Ġlocate": 12175, "Ġconvinced": 12176, "Ġbars": 12177, "Ġgang": 12178, "Ġforty": 12179, "ĠHope": 12180, "Ġaffil": 12181, "ĠReference": 12182, "etheless": 12183, "Ġdiscusses": 12184, "Ġ1968": 12185, "ĠExercise": 12186, "Us": 12187, "warf": 12188, "Ġbip": 12189, "Ġbold": 12190, "Ġbutt": 12191, "Ġscheduled": 12192, "ko": 12193, "ationally": 12194, "ĠVeter": 12195, "ierra": 12196, "Ġadvised": 12197, "Ġphysiological": 12198, "Ġmenu": 12199, "Ġmachinery": 12200, "Ġsnake": 12201, "Ġdatas": 12202, "lastname": 12203, "Ġarteries": 12204, "Ġvotes": 12205, "Ġspell": 12206, "Ġdispar": 12207, "Ġintervals": 12208, "Ġ700": 12209, "Ġslide": 12210, "Ġproclaim": 12211, "Ġspecialists": 12212, "Ġnorms": 12213, "ĠLiterature": 12214, "Ġboats": 12215, "Ġslope": 12216, "Ġoperator": 12217, "ĠSmart": 12218, "Ġconstitute": 12219, "ĠTogether": 12220, "ulative": 12221, "Ġinsulation": 12222, "Ġconsiderations": 12223, "Ġpushing": 12224, "Ġantioxidants": 12225, "ĠRain": 12226, "ighters": 12227, "ĠGospel": 12228, "Ġraces": 12229, "ĠStanford": 12230, "Ġcompact": 12231, "Ġdefining": 12232, "Ġenvironmentally": 12233, "aughters": 12234, "Ġassignments": 12235, "ĠLooking": 12236, "rets": 12237, "ĠTok": 12238, "Ġmovies": 12239, "Ġdamages": 12240, "Ġintroducing": 12241, "Ġexplicitly": 12242, "bled": 12243, "Ġdrew": 12244, "ĠCM": 12245, "ĠProb": 12246, "Ġdarkness": 12247, "Ġpurchasing": 12248, "Ġmankind": 12249, "Ġobese": 12250, "Ġfails": 12251, "Ġpoisoning": 12252, "ĠAffairs": 12253, "Ġcaffeine": 12254, "Ġbes": 12255, "Ġly": 12256, "Ġfounding": 12257, "comp": 12258, "Ġ1976": 12259, "Ġbelongs": 12260, "graduate": 12261, "Ġbowel": 12262, "Ġdeple": 12263, "Ġbuilds": 12264, "Ġ1972": 12265, "ĠTerrit": 12266, "uct": 12267, "ĠUSDA": 12268, "abetic": 12269, "Ġpolymer": 12270, "ĠClear": 12271, "ĠDenmark": 12272, "Ġions": 12273, "ĠDur": 12274, "Ġdozen": 12275, "Ġuter": 12276, "Ġyeast": 12277, "eterm": 12278, "Ġchim": 12279, "abs": 12280, "ĠRap": 12281, "Ġwast": 12282, "ĠGame": 12283, "athic": 12284, "Ġreadings": 12285, "tics": 12286, "ĠTu": 12287, "Ġworried": 12288, "ĠGil": 12289, "ĠLink": 12290, "Ġ1974": 12291, "Ġverbal": 12292, "cr": 12293, "Ġcer": 12294, "isl": 12295, "Ġfeat": 12296, "Ġ1967": 12297, "ĠMaine": 12298, "ĠWy": 12299, "Ġintact": 12300, "ibli": 12301, "Ġstatue": 12302, "Ġautomatic": 12303, "Ġaspir": 12304, "ĠMathematics": 12305, "anth": 12306, "Ġcurious": 12307, "Ġretire": 12308, "Ġheadache": 12309, "2002": 12310, "Ġtraged": 12311, "Ġcheaper": 12312, "ĠBlock": 12313, "Ġharmony": 12314, "dam": 12315, "ilton": 12316, "Ġconform": 12317, "ĠNig": 12318, "ĠLady": 12319, "ĠInnov": 12320, "ĠVo": 12321, "Ġdigestion": 12322, "Ġaccumulation": 12323, "hot": 12324, "estion": 12325, "apore": 12326, "otechnology": 12327, "Ġdecreasing": 12328, "ĠSummer": 12329, "induced": 12330, "ĠConfederate": 12331, "ĠPS": 12332, "Ġsecular": 12333, "Ġpathway": 12334, "ĠStrateg": 12335, "Ġtender": 12336, "Ġfreed": 12337, "ĠHans": 12338, "Ġhepat": 12339, "Ġwinning": 12340, "Ġlegislative": 12341, "ĠAround": 12342, "istence": 12343, "ĠTeam": 12344, "Ġpeaceful": 12345, "Ġbicy": 12346, "ĠHal": 12347, "Ġcaution": 12348, "ĠAnti": 12349, "bits": 12350, "ĠResource": 12351, "ĠBiological": 12352, "othy": 12353, "Ġ58": 12354, "ĠSuccess": 12355, "Ġreplacing": 12356, "Ġsilicon": 12357, "ĠIndependence": 12358, "first": 12359, "Ġdisin": 12360, "ĠWhit": 12361, "Ġprovinces": 12362, "Ġdepicted": 12363, "ĠArk": 12364, "Ġtestim": 12365, "ĠHTML": 12366, "ĠOR": 12367, "Ġinfl": 12368, "Ġlesser": 12369, "Ġscattered": 12370,
[...]
